{
  "version": "1.0",
  "truncation": null,
  "padding": {
    "strategy": "BatchLongest",
    "direction": "Right",
    "pad_to_multiple_of": null,
    "pad_id": 0,
    "pad_type_id": 0,
    "pad_token": "[PAD]"
  },
  "added_tokens": [
    {
      "id": 0,
      "content": "[PAD]",
      "single_word": false,
      "lstrip": false,
      "rstrip": false,
      "normalized": false,
      "special": true
    },
    {
      "id": 1,
      "content": "[UNK]",
      "single_word": false,
      "lstrip": false,
      "rstrip": false,
      "normalized": false,
      "special": true
    },
    {
      "id": 2,
      "content": "[SOS]",
      "single_word": false,
      "lstrip": false,
      "rstrip": false,
      "normalized": false,
      "special": true
    },
    {
      "id": 3,
      "content": "[SEP]",
      "single_word": false,
      "lstrip": false,
      "rstrip": false,
      "normalized": false,
      "special": true
    },
    {
      "id": 4,
      "content": "[EOS]",
      "single_word": false,
      "lstrip": false,
      "rstrip": false,
      "normalized": false,
      "special": true
    },
    {
      "id": 5,
      "content": "[MASK]",
      "single_word": false,
      "lstrip": false,
      "rstrip": false,
      "normalized": false,
      "special": true
    }
  ],
  "normalizer": null,
  "pre_tokenizer": {
    "type": "Whitespace"
  },
  "post_processor": {
    "type": "TemplateProcessing",
    "single": [
      {
        "SpecialToken": {
          "id": "[SOS]",
          "type_id": 0
        }
      },
      {
        "Sequence": {
          "id": "A",
          "type_id": 0
        }
      },
      {
        "SpecialToken": {
          "id": "[EOS]",
          "type_id": 0
        }
      }
    ],
    "pair": [
      {
        "SpecialToken": {
          "id": "[SOS]",
          "type_id": 0
        }
      },
      {
        "Sequence": {
          "id": "A",
          "type_id": 0
        }
      },
      {
        "SpecialToken": {
          "id": "[SEP]",
          "type_id": 0
        }
      },
      {
        "Sequence": {
          "id": "B",
          "type_id": 1
        }
      },
      {
        "SpecialToken": {
          "id": "[EOS]",
          "type_id": 1
        }
      }
    ],
    "special_tokens": {
      "[EOS]": {
        "id": "[EOS]",
        "ids": [
          4
        ],
        "tokens": [
          "[EOS]"
        ]
      },
      "[SEP]": {
        "id": "[SEP]",
        "ids": [
          3
        ],
        "tokens": [
          "[SEP]"
        ]
      },
      "[SOS]": {
        "id": "[SOS]",
        "ids": [
          2
        ],
        "tokens": [
          "[SOS]"
        ]
      }
    }
  },
  "decoder": null,
  "model": {
    "type": "BPE",
    "dropout": null,
    "unk_token": null,
    "continuing_subword_prefix": null,
    "end_of_word_suffix": null,
    "fuse_unk": false,
    "byte_fallback": false,
    "ignore_merges": false,
    "vocab": {
      "[PAD]": 0,
      "[UNK]": 1,
      "[SOS]": 2,
      "[SEP]": 3,
      "[EOS]": 4,
      "[MASK]": 5,
      "!": 6,
      "\"": 7,
      "#": 8,
      "$": 9,
      "%": 10,
      "&": 11,
      "'": 12,
      "(": 13,
      ")": 14,
      "*": 15,
      "+": 16,
      ",": 17,
      "-": 18,
      ".": 19,
      "/": 20,
      "0": 21,
      "1": 22,
      "2": 23,
      "3": 24,
      "4": 25,
      "5": 26,
      "6": 27,
      "7": 28,
      "8": 29,
      "9": 30,
      ":": 31,
      ";": 32,
      "<": 33,
      "=": 34,
      ">": 35,
      "?": 36,
      "@": 37,
      "A": 38,
      "B": 39,
      "C": 40,
      "D": 41,
      "E": 42,
      "F": 43,
      "G": 44,
      "H": 45,
      "I": 46,
      "J": 47,
      "K": 48,
      "L": 49,
      "M": 50,
      "N": 51,
      "O": 52,
      "P": 53,
      "Q": 54,
      "R": 55,
      "S": 56,
      "T": 57,
      "U": 58,
      "V": 59,
      "W": 60,
      "X": 61,
      "Y": 62,
      "Z": 63,
      "[": 64,
      "\\": 65,
      "]": 66,
      "^": 67,
      "_": 68,
      "`": 69,
      "a": 70,
      "b": 71,
      "c": 72,
      "d": 73,
      "e": 74,
      "f": 75,
      "g": 76,
      "h": 77,
      "i": 78,
      "j": 79,
      "k": 80,
      "l": 81,
      "m": 82,
      "n": 83,
      "o": 84,
      "p": 85,
      "q": 86,
      "r": 87,
      "s": 88,
      "t": 89,
      "u": 90,
      "v": 91,
      "w": 92,
      "x": 93,
      "y": 94,
      "z": 95,
      "{": 96,
      "|": 97,
      "}": 98,
      "~": 99,
      "": 100,
      "": 101,
      "": 102,
      "": 103,
      "": 104,
      "": 105,
      "": 106,
      "": 107,
      "": 108,
      "": 109,
      "": 110,
      "": 111,
      "": 112,
      "": 113,
      "": 114,
      "": 115,
      "": 116,
      "": 117,
      "": 118,
      "": 119,
      "": 120,
      "": 121,
      "": 122,
      "": 123,
      "": 124,
      "": 125,
      "¡": 126,
      "¢": 127,
      "£": 128,
      "¤": 129,
      "¥": 130,
      "¦": 131,
      "§": 132,
      "¨": 133,
      "©": 134,
      "ª": 135,
      "«": 136,
      "¬": 137,
      "­": 138,
      "®": 139,
      "¯": 140,
      "°": 141,
      "±": 142,
      "²": 143,
      "³": 144,
      "´": 145,
      "µ": 146,
      "¶": 147,
      "·": 148,
      "¸": 149,
      "¹": 150,
      "º": 151,
      "»": 152,
      "¼": 153,
      "½": 154,
      "¾": 155,
      "¿": 156,
      "À": 157,
      "Á": 158,
      "Â": 159,
      "Ã": 160,
      "Ä": 161,
      "Å": 162,
      "Æ": 163,
      "Ç": 164,
      "È": 165,
      "É": 166,
      "Ê": 167,
      "Ë": 168,
      "Ì": 169,
      "Í": 170,
      "Î": 171,
      "Ï": 172,
      "Ð": 173,
      "Ñ": 174,
      "Ò": 175,
      "Ó": 176,
      "Ô": 177,
      "Õ": 178,
      "Ö": 179,
      "×": 180,
      "Ø": 181,
      "Ú": 182,
      "Û": 183,
      "Ü": 184,
      "Ý": 185,
      "Þ": 186,
      "ß": 187,
      "à": 188,
      "á": 189,
      "â": 190,
      "ã": 191,
      "ä": 192,
      "å": 193,
      "æ": 194,
      "ç": 195,
      "è": 196,
      "é": 197,
      "ê": 198,
      "ë": 199,
      "ì": 200,
      "í": 201,
      "î": 202,
      "ï": 203,
      "ð": 204,
      "ñ": 205,
      "ò": 206,
      "ó": 207,
      "ô": 208,
      "õ": 209,
      "ö": 210,
      "÷": 211,
      "ø": 212,
      "ù": 213,
      "ú": 214,
      "û": 215,
      "ü": 216,
      "ý": 217,
      "þ": 218,
      "ÿ": 219,
      "Ā": 220,
      "ā": 221,
      "Ă": 222,
      "ă": 223,
      "ą": 224,
      "Ć": 225,
      "ć": 226,
      "ĉ": 227,
      "ċ": 228,
      "Č": 229,
      "č": 230,
      "Ď": 231,
      "ď": 232,
      "Đ": 233,
      "đ": 234,
      "Ē": 235,
      "ē": 236,
      "ĕ": 237,
      "ė": 238,
      "ę": 239,
      "ě": 240,
      "Ĝ": 241,
      "ĝ": 242,
      "Ğ": 243,
      "ğ": 244,
      "ġ": 245,
      "Ģ": 246,
      "ĥ": 247,
      "Ħ": 248,
      "ħ": 249,
      "ĩ": 250,
      "Ī": 251,
      "ī": 252,
      "ĭ": 253,
      "į": 254,
      "İ": 255,
      "ı": 256,
      "ĵ": 257,
      "ķ": 258,
      "ļ": 259,
      "ľ": 260,
      "Ł": 261,
      "ł": 262,
      "ń": 263,
      "ņ": 264,
      "ň": 265,
      "ŋ": 266,
      "Ō": 267,
      "ō": 268,
      "ŏ": 269,
      "ő": 270,
      "Œ": 271,
      "œ": 272,
      "Ř": 273,
      "ř": 274,
      "Ś": 275,
      "ś": 276,
      "Ŝ": 277,
      "Ş": 278,
      "ş": 279,
      "Š": 280,
      "š": 281,
      "Ţ": 282,
      "ţ": 283,
      "Ť": 284,
      "ť": 285,
      "Ŧ": 286,
      "ŧ": 287,
      "ũ": 288,
      "Ū": 289,
      "ū": 290,
      "ŭ": 291,
      "ů": 292,
      "ű": 293,
      "ų": 294,
      "ŵ": 295,
      "ŷ": 296,
      "Ÿ": 297,
      "Ź": 298,
      "ź": 299,
      "Ż": 300,
      "ż": 301,
      "Ž": 302,
      "ž": 303,
      "ſ": 304,
      "ƀ": 305,
      "Ɔ": 306,
      "Ɗ": 307,
      "Ɛ": 308,
      "ƒ": 309,
      "ơ": 310,
      "ƣ": 311,
      "Ƨ": 312,
      "ư": 313,
      "ǃ": 314,
      "Ǉ": 315,
      "ǈ": 316,
      "ǉ": 317,
      "ǎ": 318,
      "ǐ": 319,
      "ǒ": 320,
      "ǔ": 321,
      "ǚ": 322,
      "ǜ": 323,
      "ǝ": 324,
      "ǣ": 325,
      "ǥ": 326,
      "ǧ": 327,
      "ǫ": 328,
      "ǰ": 329,
      "ǵ": 330,
      "Ƕ": 331,
      "ȇ": 332,
      "Ȋ": 333,
      "Ȓ": 334,
      "ȓ": 335,
      "Ș": 336,
      "ș": 337,
      "Ț": 338,
      "ț": 339,
      "ɂ": 340,
      "Ƀ": 341,
      "ɐ": 342,
      "ɑ": 343,
      "ɒ": 344,
      "ɓ": 345,
      "ɔ": 346,
      "ɕ": 347,
      "ɖ": 348,
      "ɗ": 349,
      "ə": 350,
      "ɚ": 351,
      "ɛ": 352,
      "ɜ": 353,
      "ɝ": 354,
      "ɟ": 355,
      "ɡ": 356,
      "ɢ": 357,
      "ɣ": 358,
      "ɥ": 359,
      "ɦ": 360,
      "ɨ": 361,
      "ɪ": 362,
      "ɫ": 363,
      "ɬ": 364,
      "ɯ": 365,
      "ɳ": 366,
      "ɴ": 367,
      "ɹ": 368,
      "ɽ": 369,
      "ɾ": 370,
      "ʀ": 371,
      "ʁ": 372,
      "ʂ": 373,
      "ʃ": 374,
      "ʇ": 375,
      "ʊ": 376,
      "ʋ": 377,
      "ʌ": 378,
      "ʍ": 379,
      "ʎ": 380,
      "ʏ": 381,
      "ʐ": 382,
      "ʒ": 383,
      "ʔ": 384,
      "ʕ": 385,
      "ʖ": 386,
      "ʘ": 387,
      "ʙ": 388,
      "ʜ": 389,
      "ʝ": 390,
      "ʟ": 391,
      "ʠ": 392,
      "ʰ": 393,
      "ʱ": 394,
      "ʲ": 395,
      "ʶ": 396,
      "ʷ": 397,
      "ʹ": 398,
      "ʻ": 399,
      "ʼ": 400,
      "ʽ": 401,
      "ʾ": 402,
      "ʿ": 403,
      "ˀ": 404,
      "˂": 405,
      "ˆ": 406,
      "ˈ": 407,
      "ˊ": 408,
      "ˋ": 409,
      "ˌ": 410,
      "ː": 411,
      "ˑ": 412,
      "˙": 413,
      "˚": 414,
      "˜": 415,
      "ˢ": 416,
      "ˣ": 417,
      "ˤ": 418,
      "˥": 419,
      "˦": 420,
      "˧": 421,
      "˨": 422,
      "˩": 423,
      "ˮ": 424,
      "̀": 425,
      "́": 426,
      "̂": 427,
      "̃": 428,
      "̄": 429,
      "̅": 430,
      "̇": 431,
      "̈": 432,
      "̊": 433,
      "̌": 434,
      "̍": 435,
      "̐": 436,
      "̑": 437,
      "̕": 438,
      "̖": 439,
      "̗": 440,
      "̘": 441,
      "̙": 442,
      "̚": 443,
      "̛": 444,
      "̜": 445,
      "̝": 446,
      "̞": 447,
      "̟": 448,
      "̠": 449,
      "̡": 450,
      "̢": 451,
      "̣": 452,
      "̤": 453,
      "̥": 454,
      "̦": 455,
      "̧": 456,
      "̨": 457,
      "̩": 458,
      "̪": 459,
      "̫": 460,
      "̬": 461,
      "̭": 462,
      "̮": 463,
      "̯": 464,
      "̰": 465,
      "̱": 466,
      "̲": 467,
      "̳": 468,
      "̴": 469,
      "̵": 470,
      "̶": 471,
      "̷": 472,
      "̸": 473,
      "̹": 474,
      "̺": 475,
      "̻": 476,
      "̼": 477,
      "̀": 478,
      "́": 479,
      "͂": 480,
      "̈́": 481,
      "ͅ": 482,
      "͇": 483,
      "͈": 484,
      "͉": 485,
      "͍": 486,
      "͎": 487,
      "͓": 488,
      "͔": 489,
      "͕": 490,
      "͖": 491,
      "͘": 492,
      "͙": 493,
      "͚": 494,
      "͜": 495,
      "͝": 496,
      "͞": 497,
      "͟": 498,
      "͠": 499,
      "͡": 500,
      "͢": 501,
      "΄": 502,
      "Ά": 503,
      "Έ": 504,
      "Ή": 505,
      "Ό": 506,
      "Α": 507,
      "Β": 508,
      "Γ": 509,
      "Δ": 510,
      "Ε": 511,
      "Ζ": 512,
      "Η": 513,
      "Θ": 514,
      "Ι": 515,
      "Κ": 516,
      "Λ": 517,
      "Μ": 518,
      "Ν": 519,
      "Ξ": 520,
      "Ο": 521,
      "Π": 522,
      "Ρ": 523,
      "Σ": 524,
      "Τ": 525,
      "Υ": 526,
      "Φ": 527,
      "Χ": 528,
      "Ψ": 529,
      "Ω": 530,
      "ά": 531,
      "έ": 532,
      "ή": 533,
      "ί": 534,
      "α": 535,
      "β": 536,
      "γ": 537,
      "δ": 538,
      "ε": 539,
      "ζ": 540,
      "η": 541,
      "θ": 542,
      "ι": 543,
      "κ": 544,
      "λ": 545,
      "μ": 546,
      "ν": 547,
      "ξ": 548,
      "ο": 549,
      "π": 550,
      "ρ": 551,
      "ς": 552,
      "σ": 553,
      "τ": 554,
      "υ": 555,
      "φ": 556,
      "χ": 557,
      "ψ": 558,
      "ω": 559,
      "ϊ": 560,
      "ό": 561,
      "ύ": 562,
      "ώ": 563,
      "ϑ": 564,
      "ϕ": 565,
      "Ϝ": 566,
      "ϝ": 567,
      "Ϣ": 568,
      "Ϭ": 569,
      "ϵ": 570,
      "І": 571,
      "Ј": 572,
      "А": 573,
      "Б": 574,
      "В": 575,
      "Г": 576,
      "Д": 577,
      "Е": 578,
      "Ж": 579,
      "З": 580,
      "И": 581,
      "К": 582,
      "Л": 583,
      "М": 584,
      "Н": 585,
      "О": 586,
      "П": 587,
      "Р": 588,
      "С": 589,
      "Т": 590,
      "У": 591,
      "Ф": 592,
      "Х": 593,
      "Ц": 594,
      "Ч": 595,
      "Ш": 596,
      "Щ": 597,
      "Э": 598,
      "Ю": 599,
      "Я": 600,
      "а": 601,
      "б": 602,
      "в": 603,
      "г": 604,
      "д": 605,
      "е": 606,
      "ж": 607,
      "з": 608,
      "и": 609,
      "й": 610,
      "к": 611,
      "л": 612,
      "м": 613,
      "н": 614,
      "о": 615,
      "п": 616,
      "р": 617,
      "с": 618,
      "т": 619,
      "у": 620,
      "ф": 621,
      "х": 622,
      "ц": 623,
      "ч": 624,
      "ш": 625,
      "щ": 626,
      "ъ": 627,
      "ы": 628,
      "ь": 629,
      "э": 630,
      "ю": 631,
      "я": 632,
      "ё": 633,
      "ђ": 634,
      "є": 635,
      "ѕ": 636,
      "і": 637,
      "ї": 638,
      "ј": 639,
      "ў": 640,
      "џ": 641,
      "Ѽ": 642,
      "ғ": 643,
      "қ": 644,
      "ҡ": 645,
      "ү": 646,
      "ҳ": 647,
      "ҷ": 648,
      "ӑ": 649,
      "ӕ": 650,
      "ә": 651,
      "Ӡ": 652,
      "ӣ": 653,
      "Ӧ": 654,
      "ӧ": 655,
      "Ө": 656,
      "ө": 657,
      "Ӵ": 658,
      "ԛ": 659,
      "Ա": 660,
      "Լ": 661,
      "Խ": 662,
      "Ղ": 663,
      "Մ": 664,
      "Ն": 665,
      "ՠ": 666,
      "ա": 667,
      "բ": 668,
      "գ": 669,
      "ե": 670,
      "թ": 671,
      "ի": 672,
      "լ": 673,
      "խ": 674,
      "կ": 675,
      "հ": 676,
      "ղ": 677,
      "մ": 678,
      "յ": 679,
      "ն": 680,
      "ո": 681,
      "ռ": 682,
      "ս": 683,
      "ր": 684,
      "ց": 685,
      "ւ": 686,
      "ք": 687,
      "֛": 688,
      "֤": 689,
      "֫": 690,
      "֭": 691,
      "ְ": 692,
      "ֳ": 693,
      "ִ": 694,
      "ֵ": 695,
      "ֶ": 696,
      "ַ": 697,
      "ָ": 698,
      "ֹ": 699,
      "ֻ": 700,
      "ּ": 701,
      "־": 702,
      "ֿ": 703,
      "ׁ": 704,
      "׃": 705,
      "א": 706,
      "ב": 707,
      "ג": 708,
      "ד": 709,
      "ה": 710,
      "ו": 711,
      "ז": 712,
      "ח": 713,
      "ט": 714,
      "י": 715,
      "ך": 716,
      "כ": 717,
      "ל": 718,
      "ם": 719,
      "מ": 720,
      "ן": 721,
      "נ": 722,
      "ס": 723,
      "ע": 724,
      "ף": 725,
      "פ": 726,
      "צ": 727,
      "ק": 728,
      "ר": 729,
      "ש": 730,
      "ת": 731,
      "ײ": 732,
      "״": 733,
      "،": 734,
      "؛": 735,
      "؟": 736,
      "ء": 737,
      "آ": 738,
      "أ": 739,
      "ؤ": 740,
      "إ": 741,
      "ئ": 742,
      "ا": 743,
      "ب": 744,
      "ة": 745,
      "ت": 746,
      "ث": 747,
      "ج": 748,
      "ح": 749,
      "خ": 750,
      "د": 751,
      "ذ": 752,
      "ر": 753,
      "ز": 754,
      "س": 755,
      "ش": 756,
      "ص": 757,
      "ض": 758,
      "ط": 759,
      "ظ": 760,
      "ع": 761,
      "غ": 762,
      "ـ": 763,
      "ف": 764,
      "ق": 765,
      "ك": 766,
      "ل": 767,
      "م": 768,
      "ن": 769,
      "ه": 770,
      "و": 771,
      "ى": 772,
      "ي": 773,
      "ً": 774,
      "ٌ": 775,
      "ٍ": 776,
      "َ": 777,
      "ُ": 778,
      "ِ": 779,
      "ّ": 780,
      "ْ": 781,
      "ٔ": 782,
      "١": 783,
      "٩": 784,
      "٪": 785,
      "ٰ": 786,
      "ٱ": 787,
      "ٹ": 788,
      "پ": 789,
      "چ": 790,
      "ڌ": 791,
      "ڏ": 792,
      "ڑ": 793,
      "ژ": 794,
      "ښ": 795,
      "ک": 796,
      "گ": 797,
      "ھ": 798,
      "ہ": 799,
      "ی": 800,
      "ې": 801,
      "ے": 802,
      "ە": 803,
      "ۖ": 804,
      "ۗ": 805,
      "ۚ": 806,
      "۰": 807,
      "۱": 808,
      "۲": 809,
      "۳": 810,
      "۵": 811,
      "۶": 812,
      "ܐ": 813,
      "ܓ": 814,
      "ܙ": 815,
      "ܢ": 816,
      "ܥ": 817,
      "ܪ": 818,
      "ހ": 819,
      "ބ": 820,
      "އ": 821,
      "ވ": 822,
      "މ": 823,
      "ދ": 824,
      "ލ": 825,
      "ސ": 826,
      "ަ": 827,
      "ާ": 828,
      "ި": 829,
      "ީ": 830,
      "ު": 831,
      "ެ": 832,
      "ޯ": 833,
      "ް": 834,
      "ँ": 835,
      "ं": 836,
      "ः": 837,
      "अ": 838,
      "आ": 839,
      "इ": 840,
      "ई": 841,
      "उ": 842,
      "ए": 843,
      "ऐ": 844,
      "ओ": 845,
      "क": 846,
      "ख": 847,
      "ग": 848,
      "च": 849,
      "ज": 850,
      "झ": 851,
      "ञ": 852,
      "ट": 853,
      "ठ": 854,
      "ड": 855,
      "ण": 856,
      "त": 857,
      "थ": 858,
      "द": 859,
      "ध": 860,
      "न": 861,
      "प": 862,
      "फ": 863,
      "ब": 864,
      "भ": 865,
      "म": 866,
      "य": 867,
      "र": 868,
      "ल": 869,
      "ळ": 870,
      "व": 871,
      "श": 872,
      "ष": 873,
      "स": 874,
      "ह": 875,
      "़": 876,
      "ा": 877,
      "ि": 878,
      "ी": 879,
      "ु": 880,
      "ू": 881,
      "ृ": 882,
      "ॆ": 883,
      "े": 884,
      "ै": 885,
      "ो": 886,
      "ौ": 887,
      "्": 888,
      "।": 889,
      "॥": 890,
      "१": 891,
      "३": 892,
      "ং": 893,
      "অ": 894,
      "আ": 895,
      "ই": 896,
      "উ": 897,
      "এ": 898,
      "ও": 899,
      "ক": 900,
      "খ": 901,
      "গ": 902,
      "চ": 903,
      "জ": 904,
      "ঞ": 905,
      "ঠ": 906,
      "ড": 907,
      "ণ": 908,
      "ত": 909,
      "থ": 910,
      "দ": 911,
      "ধ": 912,
      "ন": 913,
      "প": 914,
      "ব": 915,
      "ভ": 916,
      "ম": 917,
      "য": 918,
      "র": 919,
      "ল": 920,
      "ষ": 921,
      "স": 922,
      "হ": 923,
      "়": 924,
      "া": 925,
      "ি": 926,
      "ী": 927,
      "ু": 928,
      "ে": 929,
      "ো": 930,
      "ৌ": 931,
      "্": 932,
      "ৰ": 933,
      "ৱ": 934,
      "৷": 935,
      "ਂ": 936,
      "ਈ": 937,
      "ਕ": 938,
      "ਖ": 939,
      "ਗ": 940,
      "ਜ": 941,
      "ਡ": 942,
      "ਢ": 943,
      "ਤ": 944,
      "ਦ": 945,
      "ਨ": 946,
      "ਪ": 947,
      "ਬ": 948,
      "ਮ": 949,
      "ਰ": 950,
      "ਲ": 951,
      "ਸ": 952,
      "ਾ": 953,
      "ਿ": 954,
      "ੀ": 955,
      "ੇ": 956,
      "ੈ": 957,
      "ੋ": 958,
      "ੰ": 959,
      "ગ": 960,
      "જ": 961,
      "ત": 962,
      "ભ": 963,
      "ર": 964,
      "લ": 965,
      "ષ": 966,
      "સ": 967,
      "ા": 968,
      "ી": 969,
      "ુ": 970,
      "ે": 971,
      "ો": 972,
      "ଂ": 973,
      "କ": 974,
      "ଣ": 975,
      "ତ": 976,
      "ଥ": 977,
      "ଧ": 978,
      "ନ": 979,
      "ପ": 980,
      "ର": 981,
      "ସ": 982,
      "ା": 983,
      "ି": 984,
      "୍": 985,
      "ୟ": 986,
      "அ": 987,
      "க": 988,
      "ச": 989,
      "ட": 990,
      "த": 991,
      "ந": 992,
      "ன": 993,
      "ப": 994,
      "ம": 995,
      "ய": 996,
      "ர": 997,
      "ற": 998,
      "ல": 999,
      "ள": 1000,
      "ழ": 1001,
      "வ": 1002,
      "ஸ": 1003,
      "ா": 1004,
      "ி": 1005,
      "ு": 1006,
      "ூ": 1007,
      "ெ": 1008,
      "ே": 1009,
      "ை": 1010,
      "ொ": 1011,
      "ோ": 1012,
      "்": 1013,
      "గ": 1014,
      "ల": 1015,
      "వ": 1016,
      "స": 1017,
      "ా": 1018,
      "ె": 1019,
      "ో": 1020,
      "్": 1021,
      "ಅ": 1022,
      "ಕ": 1023,
      "ಗ": 1024,
      "ಚ": 1025,
      "ಜ": 1026,
      "ಞ": 1027,
      "ಠ": 1028,
      "ಡ": 1029,
      "ತ": 1030,
      "ಥ": 1031,
      "ಧ": 1032,
      "ನ": 1033,
      "ಪ": 1034,
      "ಭ": 1035,
      "ಮ": 1036,
      "ಯ": 1037,
      "ರ": 1038,
      "ಲ": 1039,
      "ವ": 1040,
      "ಶ": 1041,
      "ಷ": 1042,
      "ಸ": 1043,
      "ಾ": 1044,
      "ಿ": 1045,
      "ೀ": 1046,
      "ೆ": 1047,
      "ೇ": 1048,
      "ೊ": 1049,
      "ೋ": 1050,
      "್": 1051,
      "ം": 1052,
      "അ": 1053,
      "ക": 1054,
      "ഗ": 1055,
      "ജ": 1056,
      "ട": 1057,
      "ണ": 1058,
      "ത": 1059,
      "ന": 1060,
      "പ": 1061,
      "ഭ": 1062,
      "മ": 1063,
      "യ": 1064,
      "ല": 1065,
      "ള": 1066,
      "വ": 1067,
      "ഷ": 1068,
      "സ": 1069,
      "ാ": 1070,
      "ി": 1071,
      "ു": 1072,
      "ൂ": 1073,
      "െ": 1074,
      "ോ": 1075,
      "്": 1076,
      "ං": 1077,
      "ග": 1078,
      "ච": 1079,
      "ප": 1080,
      "ම": 1081,
      "ර": 1082,
      "ල": 1083,
      "ස": 1084,
      "හ": 1085,
      "්": 1086,
      "ා": 1087,
      "ි": 1088,
      "ෙ": 1089,
      "ෝ": 1090,
      "ก": 1091,
      "ข": 1092,
      "ค": 1093,
      "ฆ": 1094,
      "ง": 1095,
      "จ": 1096,
      "ฉ": 1097,
      "ช": 1098,
      "ซ": 1099,
      "ญ": 1100,
      "ฏ": 1101,
      "ฐ": 1102,
      "ฑ": 1103,
      "ฒ": 1104,
      "ณ": 1105,
      "ด": 1106,
      "ต": 1107,
      "ถ": 1108,
      "ท": 1109,
      "ธ": 1110,
      "น": 1111,
      "บ": 1112,
      "ป": 1113,
      "ผ": 1114,
      "ฝ": 1115,
      "พ": 1116,
      "ฟ": 1117,
      "ภ": 1118,
      "ม": 1119,
      "ย": 1120,
      "ร": 1121,
      "ฤ": 1122,
      "ล": 1123,
      "ว": 1124,
      "ศ": 1125,
      "ษ": 1126,
      "ส": 1127,
      "ห": 1128,
      "อ": 1129,
      "ฯ": 1130,
      "ะ": 1131,
      "ั": 1132,
      "า": 1133,
      "ำ": 1134,
      "ิ": 1135,
      "ี": 1136,
      "ึ": 1137,
      "ื": 1138,
      "ุ": 1139,
      "ู": 1140,
      "฿": 1141,
      "เ": 1142,
      "แ": 1143,
      "โ": 1144,
      "ใ": 1145,
      "ไ": 1146,
      "ๆ": 1147,
      "็": 1148,
      "่": 1149,
      "้": 1150,
      "๊": 1151,
      "๋": 1152,
      "์": 1153,
      "๑": 1154,
      "๓": 1155,
      "๔": 1156,
      "๕": 1157,
      "๙": 1158,
      "ຊ": 1159,
      "ດ": 1160,
      "ຕ": 1161,
      "ທ": 1162,
      "ນ": 1163,
      "ປ": 1164,
      "ພ": 1165,
      "ລ": 1166,
      "ວ": 1167,
      "ສ": 1168,
      "ະ": 1169,
      "ັ": 1170,
      "າ": 1171,
      "ິ": 1172,
      "ົ": 1173,
      "ເ": 1174,
      "ໄ": 1175,
      "་": 1176,
      "༼": 1177,
      "༽": 1178,
      "ག": 1179,
      "ཆ": 1180,
      "ཇ": 1181,
      "ད": 1182,
      "ན": 1183,
      "པ": 1184,
      "ཕ": 1185,
      "བ": 1186,
      "འ": 1187,
      "ལ": 1188,
      "ས": 1189,
      "ུ": 1190,
      "ེ": 1191,
      "ོ": 1192,
      "ྐ": 1193,
      "န": 1194,
      "ဘ": 1195,
      "မ": 1196,
      "သ": 1197,
      "ာ": 1198,
      "်": 1199,
      "ြ": 1200,
      "ა": 1201,
      "ბ": 1202,
      "გ": 1203,
      "დ": 1204,
      "ე": 1205,
      "ვ": 1206,
      "ზ": 1207,
      "თ": 1208,
      "ი": 1209,
      "კ": 1210,
      "ლ": 1211,
      "მ": 1212,
      "ნ": 1213,
      "ო": 1214,
      "რ": 1215,
      "ს": 1216,
      "ტ": 1217,
      "უ": 1218,
      "ფ": 1219,
      "ქ": 1220,
      "ღ": 1221,
      "შ": 1222,
      "ჩ": 1223,
      "ც": 1224,
      "ძ": 1225,
      "ჭ": 1226,
      "ხ": 1227,
      "ჯ": 1228,
      "ჰ": 1229,
      "ለ": 1230,
      "ላ": 1231,
      "ል": 1232,
      "ሐ": 1233,
      "መ": 1234,
      "ማ": 1235,
      "ም": 1236,
      "ር": 1237,
      "ሱ": 1238,
      "ስ": 1239,
      "ቋ": 1240,
      "ብ": 1241,
      "ት": 1242,
      "ና": 1243,
      "ን": 1244,
      "ኛ": 1245,
      "አ": 1246,
      "ኢ": 1247,
      "የ": 1248,
      "ያ": 1249,
      "ድ": 1250,
      "ጅ": 1251,
      "ጎ": 1252,
      "ጥ": 1253,
      "፭": 1254,
      "Ꮎ": 1255,
      "Ꮟ": 1256,
      "Ꮤ": 1257,
      "ᐃ": 1258,
      "ᐅ": 1259,
      "ᐊ": 1260,
      "ᐖ": 1261,
      "ᐛ": 1262,
      "ᑎ": 1263,
      "ᑐ": 1264,
      "ᑕ": 1265,
      "ᑦ": 1266,
      "ᑰ": 1267,
      "ᒃ": 1268,
      "ᒋ": 1269,
      "ᒪ": 1270,
      "ᒻ": 1271,
      "ᓂ": 1272,
      "ᓄ": 1273,
      "ᓇ": 1274,
      "ᓕ": 1275,
      "ᓯ": 1276,
      "ᓴ": 1277,
      "ᔉ": 1278,
      "ᔊ": 1279,
      "ᔵ": 1280,
      "ᔺ": 1281,
      "ᕆ": 1282,
      "ᕈ": 1283,
      "ᕋ": 1284,
      "ᕐ": 1285,
      "ᖄ": 1286,
      "ᖅ": 1287,
      "ᖏ": 1288,
      "ᗜ": 1289,
      "ᙠ": 1290,
      "ᚱ": 1291,
      "ᚾ": 1292,
      "ᛁ": 1293,
      "ᛗ": 1294,
      "ᛚ": 1295,
      "ᛟ": 1296,
      "ណ": 1297,
      "ទ": 1298,
      "ប": 1299,
      "រ": 1300,
      "វ": 1301,
      "ស": 1302,
      "ឡ": 1303,
      "ា": 1304,
      "ី": 1305,
      "ូ": 1306,
      "េ": 1307,
      "្": 1308,
      "ᴀ": 1309,
      "ᴄ": 1310,
      "ᴇ": 1311,
      "ᴉ": 1312,
      "ᴏ": 1313,
      "ᴘ": 1314,
      "ᴛ": 1315,
      "ᴠ": 1316,
      "ᴥ": 1317,
      "ᴳ": 1318,
      "ᴹ": 1319,
      "ᴼ": 1320,
      "ᵃ": 1321,
      "ᵇ": 1322,
      "ᵔ": 1323,
      "ᵗ": 1324,
      "ᶥ": 1325,
      "Ḍ": 1326,
      "ḍ": 1327,
      "Ḏ": 1328,
      "ḏ": 1329,
      "ḗ": 1330,
      "ḡ": 1331,
      "Ḥ": 1332,
      "ḥ": 1333,
      "ḫ": 1334,
      "ḱ": 1335,
      "ḳ": 1336,
      "Ḵ": 1337,
      "ḵ": 1338,
      "ḷ": 1339,
      "ṁ": 1340,
      "ṃ": 1341,
      "ṅ": 1342,
      "Ṇ": 1343,
      "ṇ": 1344,
      "ṉ": 1345,
      "ṓ": 1346,
      "Ṛ": 1347,
      "ṛ": 1348,
      "Ṣ": 1349,
      "ṣ": 1350,
      "Ṭ": 1351,
      "ṭ": 1352,
      "ṯ": 1353,
      "ṳ": 1354,
      "ẓ": 1355,
      "ạ": 1356,
      "ả": 1357,
      "ấ": 1358,
      "ầ": 1359,
      "ẩ": 1360,
      "ậ": 1361,
      "ắ": 1362,
      "ằ": 1363,
      "ặ": 1364,
      "ẹ": 1365,
      "ế": 1366,
      "ề": 1367,
      "ể": 1368,
      "ễ": 1369,
      "ệ": 1370,
      "ỉ": 1371,
      "ị": 1372,
      "Ọ": 1373,
      "ọ": 1374,
      "ỏ": 1375,
      "ố": 1376,
      "ồ": 1377,
      "ổ": 1378,
      "ộ": 1379,
      "ớ": 1380,
      "ờ": 1381,
      "ở": 1382,
      "ợ": 1383,
      "ụ": 1384,
      "ủ": 1385,
      "Ứ": 1386,
      "ứ": 1387,
      "ử": 1388,
      "ữ": 1389,
      "ự": 1390,
      "ỳ": 1391,
      "ỵ": 1392,
      "ἀ": 1393,
      "ἁ": 1394,
      "ἄ": 1395,
      "ἅ": 1396,
      "Ἀ": 1397,
      "Ἁ": 1398,
      "Ἄ": 1399,
      "ἐ": 1400,
      "ἑ": 1401,
      "ἔ": 1402,
      "Ἐ": 1403,
      "Ἑ": 1404,
      "ἠ": 1405,
      "ἡ": 1406,
      "ἢ": 1407,
      "ἤ": 1408,
      "ἥ": 1409,
      "ἦ": 1410,
      "ἰ": 1411,
      "ἱ": 1412,
      "ἴ": 1413,
      "ἵ": 1414,
      "ἶ": 1415,
      "Ἰ": 1416,
      "Ἱ": 1417,
      "ὀ": 1418,
      "ὁ": 1419,
      "ὄ": 1420,
      "ὅ": 1421,
      "ὐ": 1422,
      "ὑ": 1423,
      "ὕ": 1424,
      "ὥ": 1425,
      "ὧ": 1426,
      "Ὡ": 1427,
      "ὰ": 1428,
      "ά": 1429,
      "έ": 1430,
      "ὴ": 1431,
      "ή": 1432,
      "ὶ": 1433,
      "ί": 1434,
      "ὸ": 1435,
      "ό": 1436,
      "ὺ": 1437,
      "ύ": 1438,
      "ὼ": 1439,
      "ώ": 1440,
      "᾽": 1441,
      "ῃ": 1442,
      "ῆ": 1443,
      "ῇ": 1444,
      "ῖ": 1445,
      "ῥ": 1446,
      "ῦ": 1447,
      "ῧ": 1448,
      "ῳ": 1449,
      "ῶ": 1450,
      "ῷ": 1451,
      "​": 1452,
      "‌": 1453,
      "‍": 1454,
      "‎": 1455,
      "‏": 1456,
      "‐": 1457,
      "‑": 1458,
      "‒": 1459,
      "–": 1460,
      "—": 1461,
      "―": 1462,
      "‖": 1463,
      "‘": 1464,
      "’": 1465,
      "‚": 1466,
      "‛": 1467,
      "“": 1468,
      "”": 1469,
      "„": 1470,
      "‟": 1471,
      "†": 1472,
      "‡": 1473,
      "•": 1474,
      "‣": 1475,
      "․": 1476,
      "…": 1477,
      "‧": 1478,
      "‪": 1479,
      "‫": 1480,
      "‬": 1481,
      "‭": 1482,
      "‮": 1483,
      "‰": 1484,
      "′": 1485,
      "″": 1486,
      "‹": 1487,
      "›": 1488,
      "※": 1489,
      "‼": 1490,
      "‽": 1491,
      "‿": 1492,
      "⁂": 1493,
      "⁃": 1494,
      "⁄": 1495,
      "⁊": 1496,
      "⁠": 1497,
      "⁡": 1498,
      "⁢": 1499,
      "⁰": 1500,
      "⁴": 1501,
      "⁵": 1502,
      "⁶": 1503,
      "⁷": 1504,
      "⁸": 1505,
      "⁹": 1506,
      "⁻": 1507,
      "₁": 1508,
      "₂": 1509,
      "₤": 1510,
      "₩": 1511,
      "€": 1512,
      "₱": 1513,
      "₹": 1514,
      "⃣": 1515,
      "℃": 1516,
      "℅": 1517,
      "℉": 1518,
      "ℌ": 1519,
      "ℏ": 1520,
      "ℑ": 1521,
      "ℒ": 1522,
      "ℓ": 1523,
      "№": 1524,
      "℗": 1525,
      "℘": 1526,
      "ℜ": 1527,
      "℞": 1528,
      "℠": 1529,
      "™": 1530,
      "ℨ": 1531,
      "ℭ": 1532,
      "ℵ": 1533,
      "ℶ": 1534,
      "ℹ": 1535,
      "⅋": 1536,
      "⅓": 1537,
      "⅔": 1538,
      "⅕": 1539,
      "⅛": 1540,
      "⅜": 1541,
      "⅞": 1542,
      "←": 1543,
      "↑": 1544,
      "→": 1545,
      "↓": 1546,
      "↔": 1547,
      "↦": 1548,
      "↩": 1549,
      "⇄": 1550,
      "⇆": 1551,
      "⇌": 1552,
      "⇐": 1553,
      "⇒": 1554,
      "⇓": 1555,
      "⇚": 1556,
      "⇛": 1557,
      "⇧": 1558,
      "∀": 1559,
      "∂": 1560,
      "∃": 1561,
      "∄": 1562,
      "∅": 1563,
      "∆": 1564,
      "∇": 1565,
      "∈": 1566,
      "∏": 1567,
      "∑": 1568,
      "−": 1569,
      "∓": 1570,
      "∗": 1571,
      "∘": 1572,
      "√": 1573,
      "∝": 1574,
      "∞": 1575,
      "∣": 1576,
      "∥": 1577,
      "∦": 1578,
      "∧": 1579,
      "∨": 1580,
      "∩": 1581,
      "∪": 1582,
      "∫": 1583,
      "∮": 1584,
      "∴": 1585,
      "∶": 1586,
      "∷": 1587,
      "∼": 1588,
      "≃": 1589,
      "≅": 1590,
      "≈": 1591,
      "≜": 1592,
      "≠": 1593,
      "≡": 1594,
      "≤": 1595,
      "≥": 1596,
      "≦": 1597,
      "≪": 1598,
      "≫": 1599,
      "≻": 1600,
      "⊂": 1601,
      "⊃": 1602,
      "⊕": 1603,
      "⊗": 1604,
      "⊙": 1605,
      "⊥": 1606,
      "⋅": 1607,
      "⋆": 1608,
      "⋕": 1609,
      "⋮": 1610,
      "⋯": 1611,
      "⌐": 1612,
      "⌘": 1613,
      "⎇": 1614,
      "⎝": 1615,
      "⎠": 1616,
      "⎯": 1617,
      "⏟": 1618,
      "⏱": 1619,
      "␣": 1620,
      "①": 1621,
      "Ⓜ": 1622,
      "Ⓡ": 1623,
      "Ⓥ": 1624,
      "ⓒ": 1625,
      "ⓘ": 1626,
      "─": 1627,
      "━": 1628,
      "│": 1629,
      "┃": 1630,
      "┌": 1631,
      "┐": 1632,
      "└": 1633,
      "┕": 1634,
      "┘": 1635,
      "├": 1636,
      "┬": 1637,
      "┴": 1638,
      "┻": 1639,
      "┼": 1640,
      "═": 1641,
      "║": 1642,
      "╒": 1643,
      "╔": 1644,
      "╕": 1645,
      "╗": 1646,
      "╚": 1647,
      "╜": 1648,
      "╝": 1649,
      "╠": 1650,
      "╣": 1651,
      "╦": 1652,
      "╨": 1653,
      "╩": 1654,
      "╬": 1655,
      "╭": 1656,
      "╮": 1657,
      "╯": 1658,
      "╰": 1659,
      "╱": 1660,
      "╲": 1661,
      "╳": 1662,
      "╹": 1663,
      "▀": 1664,
      "▄": 1665,
      "█": 1666,
      "▋": 1667,
      "▌": 1668,
      "▐": 1669,
      "░": 1670,
      "▒": 1671,
      "▓": 1672,
      "■": 1673,
      "□": 1674,
      "▢": 1675,
      "▣": 1676,
      "▪": 1677,
      "▬": 1678,
      "▲": 1679,
      "△": 1680,
      "▶": 1681,
      "▸": 1682,
      "►": 1683,
      "▼": 1684,
      "▾": 1685,
      "◂": 1686,
      "◄": 1687,
      "◆": 1688,
      "◇": 1689,
      "◉": 1690,
      "◊": 1691,
      "○": 1692,
      "◎": 1693,
      "●": 1694,
      "◔": 1695,
      "◕": 1696,
      "◡": 1697,
      "◥": 1698,
      "◦": 1699,
      "◻": 1700,
      "◼": 1701,
      "◾": 1702,
      "☀": 1703,
      "☁": 1704,
      "☃": 1705,
      "★": 1706,
      "☆": 1707,
      "☉": 1708,
      "☐": 1709,
      "☑": 1710,
      "☒": 1711,
      "☔": 1712,
      "☕": 1713,
      "☘": 1714,
      "☙": 1715,
      "☛": 1716,
      "☝": 1717,
      "☠": 1718,
      "☤": 1719,
      "☯": 1720,
      "☰": 1721,
      "☲": 1722,
      "☵": 1723,
      "☷": 1724,
      "☹": 1725,
      "☺": 1726,
      "☼": 1727,
      "☽": 1728,
      "♀": 1729,
      "♂": 1730,
      "♏": 1731,
      "♔": 1732,
      "♕": 1733,
      "♛": 1734,
      "♞": 1735,
      "♠": 1736,
      "♡": 1737,
      "♣": 1738,
      "♥": 1739,
      "♦": 1740,
      "♪": 1741,
      "♫": 1742,
      "♭": 1743,
      "♯": 1744,
      "⚐": 1745,
      "⚓": 1746,
      "⚔": 1747,
      "⚖": 1748,
      "⚗": 1749,
      "⚙": 1750,
      "⚛": 1751,
      "⚠": 1752,
      "⚡": 1753,
      "⚥": 1754,
      "⚪": 1755,
      "⚽": 1756,
      "⛽": 1757,
      "✂": 1758,
      "✅": 1759,
      "✈": 1760,
      "✉": 1761,
      "✊": 1762,
      "✋": 1763,
      "✌": 1764,
      "✍": 1765,
      "✎": 1766,
      "✏": 1767,
      "✓": 1768,
      "✔": 1769,
      "✕": 1770,
      "✖": 1771,
      "✘": 1772,
      "✧": 1773,
      "✨": 1774,
      "✪": 1775,
      "✮": 1776,
      "✯": 1777,
      "✱": 1778,
      "✿": 1779,
      "❄": 1780,
      "❋": 1781,
      "❌": 1782,
      "❍": 1783,
      "❎": 1784,
      "❝": 1785,
      "❞": 1786,
      "❤": 1787,
      "❦": 1788,
      "❧": 1789,
      "❮": 1790,
      "❯": 1791,
      "➙": 1792,
      "➜": 1793,
      "➡": 1794,
      "➤": 1795,
      "➫": 1796,
      "➯": 1797,
      "⟨": 1798,
      "⟩": 1799,
      "⟶": 1800,
      "⟹": 1801,
      "⟺": 1802,
      "⠀": 1803,
      "⦁": 1804,
      "⬇": 1805,
      "⭐": 1806,
      "ⲁ": 1807,
      "ⲏ": 1808,
      "Ⲑ": 1809,
      "ⲑ": 1810,
      "ⲓ": 1811,
      "ⲙ": 1812,
      "ⲛ": 1813,
      "ⲟ": 1814,
      "ⲥ": 1815,
      "ⲧ": 1816,
      "ⲩ": 1817,
      "Ⲭ": 1818,
      "ⲱ": 1819,
      "ⴰ": 1820,
      "ⴱ": 1821,
      "ⴻ": 1822,
      "ⵄ": 1823,
      "ⵉ": 1824,
      "ⵍ": 1825,
      "ⵎ": 1826,
      "ⵏ": 1827,
      "ⵓ": 1828,
      "ⵙ": 1829,
      "ⵜ": 1830,
      "ⵟ": 1831,
      "ⵡ": 1832,
      "⸢": 1833,
      "⸣": 1834,
      "⸮": 1835,
      "、": 1836,
      "。": 1837,
      "々": 1838,
      "〇": 1839,
      "〈": 1840,
      "〉": 1841,
      "《": 1842,
      "》": 1843,
      "「": 1844,
      "」": 1845,
      "『": 1846,
      "』": 1847,
      "【": 1848,
      "】": 1849,
      "〒": 1850,
      "〜": 1851,
      "ぁ": 1852,
      "あ": 1853,
      "い": 1854,
      "ぅ": 1855,
      "う": 1856,
      "ぇ": 1857,
      "え": 1858,
      "お": 1859,
      "か": 1860,
      "が": 1861,
      "き": 1862,
      "ぎ": 1863,
      "く": 1864,
      "ぐ": 1865,
      "け": 1866,
      "げ": 1867,
      "こ": 1868,
      "ご": 1869,
      "さ": 1870,
      "ざ": 1871,
      "し": 1872,
      "じ": 1873,
      "す": 1874,
      "ず": 1875,
      "せ": 1876,
      "ぜ": 1877,
      "そ": 1878,
      "ぞ": 1879,
      "た": 1880,
      "だ": 1881,
      "ち": 1882,
      "ぢ": 1883,
      "っ": 1884,
      "つ": 1885,
      "づ": 1886,
      "て": 1887,
      "で": 1888,
      "と": 1889,
      "ど": 1890,
      "な": 1891,
      "に": 1892,
      "ぬ": 1893,
      "ね": 1894,
      "の": 1895,
      "は": 1896,
      "ば": 1897,
      "ぱ": 1898,
      "ひ": 1899,
      "び": 1900,
      "ぴ": 1901,
      "ふ": 1902,
      "ぶ": 1903,
      "ぷ": 1904,
      "へ": 1905,
      "べ": 1906,
      "ほ": 1907,
      "ぼ": 1908,
      "ぽ": 1909,
      "ま": 1910,
      "み": 1911,
      "む": 1912,
      "め": 1913,
      "も": 1914,
      "ゃ": 1915,
      "や": 1916,
      "ゅ": 1917,
      "ゆ": 1918,
      "ょ": 1919,
      "よ": 1920,
      "ら": 1921,
      "り": 1922,
      "る": 1923,
      "れ": 1924,
      "ろ": 1925,
      "わ": 1926,
      "を": 1927,
      "ん": 1928,
      "゜": 1929,
      "ゞ": 1930,
      "ァ": 1931,
      "ア": 1932,
      "ィ": 1933,
      "イ": 1934,
      "ゥ": 1935,
      "ウ": 1936,
      "ェ": 1937,
      "エ": 1938,
      "ォ": 1939,
      "オ": 1940,
      "カ": 1941,
      "ガ": 1942,
      "キ": 1943,
      "ギ": 1944,
      "ク": 1945,
      "グ": 1946,
      "ケ": 1947,
      "ゲ": 1948,
      "コ": 1949,
      "ゴ": 1950,
      "サ": 1951,
      "ザ": 1952,
      "シ": 1953,
      "ジ": 1954,
      "ス": 1955,
      "ズ": 1956,
      "セ": 1957,
      "ゼ": 1958,
      "ソ": 1959,
      "ゾ": 1960,
      "タ": 1961,
      "ダ": 1962,
      "チ": 1963,
      "ヂ": 1964,
      "ッ": 1965,
      "ツ": 1966,
      "テ": 1967,
      "デ": 1968,
      "ト": 1969,
      "ド": 1970,
      "ナ": 1971,
      "ニ": 1972,
      "ヌ": 1973,
      "ネ": 1974,
      "ノ": 1975,
      "ハ": 1976,
      "バ": 1977,
      "パ": 1978,
      "ヒ": 1979,
      "ビ": 1980,
      "ピ": 1981,
      "フ": 1982,
      "ブ": 1983,
      "プ": 1984,
      "ヘ": 1985,
      "ベ": 1986,
      "ペ": 1987,
      "ホ": 1988,
      "ボ": 1989,
      "ポ": 1990,
      "マ": 1991,
      "ミ": 1992,
      "ム": 1993,
      "メ": 1994,
      "モ": 1995,
      "ャ": 1996,
      "ヤ": 1997,
      "ュ": 1998,
      "ユ": 1999,
      "ョ": 2000,
      "ヨ": 2001,
      "ラ": 2002,
      "リ": 2003,
      "ル": 2004,
      "レ": 2005,
      "ロ": 2006,
      "ヮ": 2007,
      "ワ": 2008,
      "ヲ": 2009,
      "ン": 2010,
      "ヴ": 2011,
      "ヶ": 2012,
      "・": 2013,
      "ー": 2014,
      "ヽ": 2015,
      "ㄱ": 2016,
      "ㄹ": 2017,
      "ㅇ": 2018,
      "ㅋ": 2019,
      "ㅜ": 2020,
      "ㅠ": 2021,
      "ㅡ": 2022,
      "㎡": 2023,
      "一": 2024,
      "丁": 2025,
      "七": 2026,
      "万": 2027,
      "丈": 2028,
      "三": 2029,
      "上": 2030,
      "下": 2031,
      "不": 2032,
      "与": 2033,
      "且": 2034,
      "世": 2035,
      "丘": 2036,
      "业": 2037,
      "丛": 2038,
      "东": 2039,
      "丝": 2040,
      "丟": 2041,
      "両": 2042,
      "两": 2043,
      "严": 2044,
      "並": 2045,
      "个": 2046,
      "中": 2047,
      "丰": 2048,
      "临": 2049,
      "丸": 2050,
      "为": 2051,
      "主": 2052,
      "丽": 2053,
      "举": 2054,
      "乃": 2055,
      "久": 2056,
      "么": 2057,
      "义": 2058,
      "之": 2059,
      "乎": 2060,
      "乐": 2061,
      "乔": 2062,
      "乗": 2063,
      "乙": 2064,
      "九": 2065,
      "也": 2066,
      "书": 2067,
      "乱": 2068,
      "乳": 2069,
      "乾": 2070,
      "亀": 2071,
      "亂": 2072,
      "了": 2073,
      "予": 2074,
      "争": 2075,
      "事": 2076,
      "二": 2077,
      "于": 2078,
      "亐": 2079,
      "云": 2080,
      "互": 2081,
      "五": 2082,
      "井": 2083,
      "亚": 2084,
      "些": 2085,
      "亜": 2086,
      "亞": 2087,
      "亡": 2088,
      "交": 2089,
      "享": 2090,
      "京": 2091,
      "亭": 2092,
      "亮": 2093,
      "亲": 2094,
      "人": 2095,
      "亻": 2096,
      "亿": 2097,
      "什": 2098,
      "仁": 2099,
      "仆": 2100,
      "今": 2101,
      "介": 2102,
      "从": 2103,
      "仕": 2104,
      "他": 2105,
      "付": 2106,
      "仙": 2107,
      "代": 2108,
      "令": 2109,
      "以": 2110,
      "们": 2111,
      "仲": 2112,
      "件": 2113,
      "价": 2114,
      "任": 2115,
      "企": 2116,
      "伊": 2117,
      "休": 2118,
      "众": 2119,
      "优": 2120,
      "会": 2121,
      "伝": 2122,
      "伟": 2123,
      "传": 2124,
      "伤": 2125,
      "伯": 2126,
      "伸": 2127,
      "似": 2128,
      "伽": 2129,
      "佇": 2130,
      "位": 2131,
      "低": 2132,
      "住": 2133,
      "佐": 2134,
      "佑": 2135,
      "体": 2136,
      "何": 2137,
      "佗": 2138,
      "余": 2139,
      "佛": 2140,
      "作": 2141,
      "你": 2142,
      "佳": 2143,
      "併": 2144,
      "使": 2145,
      "來": 2146,
      "例": 2147,
      "侍": 2148,
      "侏": 2149,
      "供": 2150,
      "依": 2151,
      "侠": 2152,
      "価": 2153,
      "侯": 2154,
      "侵": 2155,
      "便": 2156,
      "係": 2157,
      "促": 2158,
      "俊": 2159,
      "俗": 2160,
      "保": 2161,
      "俞": 2162,
      "信": 2163,
      "修": 2164,
      "俯": 2165,
      "俱": 2166,
      "俳": 2167,
      "俵": 2168,
      "俺": 2169,
      "倉": 2170,
      "個": 2171,
      "倍": 2172,
      "候": 2173,
      "借": 2174,
      "値": 2175,
      "倭": 2176,
      "值": 2177,
      "倾": 2178,
      "假": 2179,
      "停": 2180,
      "健": 2181,
      "側": 2182,
      "偶": 2183,
      "偷": 2184,
      "傑": 2185,
      "備": 2186,
      "储": 2187,
      "催": 2188,
      "傷": 2189,
      "傻": 2190,
      "傾": 2191,
      "働": 2192,
      "像": 2193,
      "僕": 2194,
      "僚": 2195,
      "儀": 2196,
      "儂": 2197,
      "儒": 2198,
      "優": 2199,
      "儿": 2200,
      "元": 2201,
      "充": 2202,
      "先": 2203,
      "光": 2204,
      "克": 2205,
      "児": 2206,
      "兖": 2207,
      "党": 2208,
      "入": 2209,
      "內": 2210,
      "全": 2211,
      "兩": 2212,
      "八": 2213,
      "公": 2214,
      "六": 2215,
      "兮": 2216,
      "共": 2217,
      "关": 2218,
      "兵": 2219,
      "其": 2220,
      "具": 2221,
      "典": 2222,
      "兼": 2223,
      "兽": 2224,
      "内": 2225,
      "円": 2226,
      "再": 2227,
      "冒": 2228,
      "写": 2229,
      "军": 2230,
      "农": 2231,
      "冠": 2232,
      "冬": 2233,
      "决": 2234,
      "冷": 2235,
      "冻": 2236,
      "凄": 2237,
      "准": 2238,
      "凌": 2239,
      "凍": 2240,
      "几": 2241,
      "処": 2242,
      "凯": 2243,
      "出": 2244,
      "击": 2245,
      "凿": 2246,
      "刀": 2247,
      "分": 2248,
      "切": 2249,
      "刊": 2250,
      "刑": 2251,
      "列": 2252,
      "刘": 2253,
      "则": 2254,
      "初": 2255,
      "判": 2256,
      "別": 2257,
      "利": 2258,
      "别": 2259,
      "到": 2260,
      "制": 2261,
      "刹": 2262,
      "刺": 2263,
      "刻": 2264,
      "則": 2265,
      "削": 2266,
      "前": 2267,
      "剑": 2268,
      "剥": 2269,
      "剩": 2270,
      "副": 2271,
      "剰": 2272,
      "割": 2273,
      "創": 2274,
      "劇": 2275,
      "劈": 2276,
      "劉": 2277,
      "力": 2278,
      "劝": 2279,
      "办": 2280,
      "功": 2281,
      "加": 2282,
      "务": 2283,
      "动": 2284,
      "助": 2285,
      "努": 2286,
      "励": 2287,
      "労": 2288,
      "効": 2289,
      "势": 2290,
      "勃": 2291,
      "勇": 2292,
      "勉": 2293,
      "勒": 2294,
      "動": 2295,
      "務": 2296,
      "勝": 2297,
      "勞": 2298,
      "募": 2299,
      "勢": 2300,
      "勾": 2301,
      "匂": 2302,
      "包": 2303,
      "化": 2304,
      "北": 2305,
      "匠": 2306,
      "匣": 2307,
      "匹": 2308,
      "区": 2309,
      "医": 2310,
      "匿": 2311,
      "區": 2312,
      "十": 2313,
      "千": 2314,
      "升": 2315,
      "午": 2316,
      "半": 2317,
      "华": 2318,
      "卒": 2319,
      "協": 2320,
      "单": 2321,
      "南": 2322,
      "単": 2323,
      "博": 2324,
      "占": 2325,
      "卡": 2326,
      "卦": 2327,
      "卫": 2328,
      "印": 2329,
      "危": 2330,
      "即": 2331,
      "却": 2332,
      "卿": 2333,
      "历": 2334,
      "压": 2335,
      "厚": 2336,
      "原": 2337,
      "去": 2338,
      "县": 2339,
      "参": 2340,
      "又": 2341,
      "及": 2342,
      "友": 2343,
      "双": 2344,
      "反": 2345,
      "収": 2346,
      "发": 2347,
      "取": 2348,
      "受": 2349,
      "变": 2350,
      "叟": 2351,
      "口": 2352,
      "古": 2353,
      "句": 2354,
      "叩": 2355,
      "只": 2356,
      "叫": 2357,
      "召": 2358,
      "叭": 2359,
      "可": 2360,
      "台": 2361,
      "史": 2362,
      "右": 2363,
      "叶": 2364,
      "号": 2365,
      "司": 2366,
      "吃": 2367,
      "各": 2368,
      "合": 2369,
      "吉": 2370,
      "同": 2371,
      "名": 2372,
      "后": 2373,
      "吏": 2374,
      "吐": 2375,
      "向": 2376,
      "君": 2377,
      "吟": 2378,
      "否": 2379,
      "吧": 2380,
      "含": 2381,
      "吳": 2382,
      "吴": 2383,
      "吸": 2384,
      "吹": 2385,
      "吾": 2386,
      "呂": 2387,
      "呈": 2388,
      "告": 2389,
      "员": 2390,
      "呟": 2391,
      "呢": 2392,
      "周": 2393,
      "味": 2394,
      "呼": 2395,
      "命": 2396,
      "和": 2397,
      "咖": 2398,
      "咲": 2399,
      "哀": 2400,
      "品": 2401,
      "哈": 2402,
      "哉": 2403,
      "員": 2404,
      "哥": 2405,
      "哪": 2406,
      "哲": 2407,
      "唆": 2408,
      "唇": 2409,
      "唐": 2410,
      "唯": 2411,
      "唱": 2412,
      "商": 2413,
      "問": 2414,
      "啡": 2415,
      "善": 2416,
      "喚": 2417,
      "喜": 2418,
      "喧": 2419,
      "喪": 2420,
      "單": 2421,
      "喵": 2422,
      "営": 2423,
      "嗚": 2424,
      "嘗": 2425,
      "嘩": 2426,
      "嘴": 2427,
      "噛": 2428,
      "器": 2429,
      "噴": 2430,
      "噺": 2431,
      "嚢": 2432,
      "嚴": 2433,
      "嚼": 2434,
      "囗": 2435,
      "四": 2436,
      "回": 2437,
      "因": 2438,
      "团": 2439,
      "団": 2440,
      "园": 2441,
      "困": 2442,
      "囲": 2443,
      "図": 2444,
      "围": 2445,
      "固": 2446,
      "国": 2447,
      "图": 2448,
      "圆": 2449,
      "國": 2450,
      "圍": 2451,
      "園": 2452,
      "圖": 2453,
      "團": 2454,
      "土": 2455,
      "圣": 2456,
      "圧": 2457,
      "在": 2458,
      "地": 2459,
      "场": 2460,
      "圾": 2461,
      "坂": 2462,
      "均": 2463,
      "坊": 2464,
      "坎": 2465,
      "坝": 2466,
      "坤": 2467,
      "垂": 2468,
      "垃": 2469,
      "型": 2470,
      "垢": 2471,
      "垦": 2472,
      "埋": 2473,
      "城": 2474,
      "域": 2475,
      "執": 2476,
      "培": 2477,
      "基": 2478,
      "埼": 2479,
      "堂": 2480,
      "堅": 2481,
      "堤": 2482,
      "堪": 2483,
      "報": 2484,
      "場": 2485,
      "塔": 2486,
      "塗": 2487,
      "塚": 2488,
      "境": 2489,
      "墓": 2490,
      "増": 2491,
      "墙": 2492,
      "增": 2493,
      "墟": 2494,
      "墨": 2495,
      "墮": 2496,
      "墳": 2497,
      "壁": 2498,
      "壇": 2499,
      "壊": 2500,
      "壩": 2501,
      "士": 2502,
      "壮": 2503,
      "声": 2504,
      "売": 2505,
      "壽": 2506,
      "夂": 2507,
      "変": 2508,
      "复": 2509,
      "夏": 2510,
      "夕": 2511,
      "外": 2512,
      "多": 2513,
      "夜": 2514,
      "夢": 2515,
      "大": 2516,
      "天": 2517,
      "太": 2518,
      "夫": 2519,
      "央": 2520,
      "失": 2521,
      "头": 2522,
      "夷": 2523,
      "奇": 2524,
      "奈": 2525,
      "奋": 2526,
      "奏": 2527,
      "奔": 2528,
      "奕": 2529,
      "奖": 2530,
      "套": 2531,
      "奥": 2532,
      "奪": 2533,
      "奮": 2534,
      "女": 2535,
      "奴": 2536,
      "她": 2537,
      "好": 2538,
      "如": 2539,
      "妃": 2540,
      "妈": 2541,
      "妖": 2542,
      "妙": 2543,
      "妹": 2544,
      "妻": 2545,
      "妾": 2546,
      "姉": 2547,
      "始": 2548,
      "姐": 2549,
      "姑": 2550,
      "姓": 2551,
      "委": 2552,
      "姥": 2553,
      "姿": 2554,
      "娇": 2555,
      "婚": 2556,
      "婦": 2557,
      "媒": 2558,
      "嫁": 2559,
      "嫌": 2560,
      "嫖": 2561,
      "嬉": 2562,
      "嬪": 2563,
      "子": 2564,
      "孔": 2565,
      "字": 2566,
      "存": 2567,
      "孙": 2568,
      "孝": 2569,
      "季": 2570,
      "孤": 2571,
      "学": 2572,
      "孩": 2573,
      "孫": 2574,
      "學": 2575,
      "宅": 2576,
      "宇": 2577,
      "守": 2578,
      "安": 2579,
      "宋": 2580,
      "完": 2581,
      "宏": 2582,
      "宗": 2583,
      "官": 2584,
      "宙": 2585,
      "定": 2586,
      "宛": 2587,
      "宜": 2588,
      "宝": 2589,
      "实": 2590,
      "実": 2591,
      "审": 2592,
      "客": 2593,
      "宣": 2594,
      "室": 2595,
      "宮": 2596,
      "宰": 2597,
      "害": 2598,
      "宴": 2599,
      "宵": 2600,
      "家": 2601,
      "容": 2602,
      "宿": 2603,
      "寂": 2604,
      "寄": 2605,
      "密": 2606,
      "寇": 2607,
      "富": 2608,
      "寒": 2609,
      "察": 2610,
      "實": 2611,
      "寧": 2612,
      "審": 2613,
      "寮": 2614,
      "寶": 2615,
      "寸": 2616,
      "对": 2617,
      "寺": 2618,
      "导": 2619,
      "対": 2620,
      "寿": 2621,
      "封": 2622,
      "専": 2623,
      "射": 2624,
      "将": 2625,
      "將": 2626,
      "尊": 2627,
      "導": 2628,
      "小": 2629,
      "少": 2630,
      "尔": 2631,
      "尖": 2632,
      "尚": 2633,
      "就": 2634,
      "尻": 2635,
      "尽": 2636,
      "尾": 2637,
      "局": 2638,
      "层": 2639,
      "居": 2640,
      "屈": 2641,
      "届": 2642,
      "屋": 2643,
      "展": 2644,
      "属": 2645,
      "履": 2646,
      "屬": 2647,
      "山": 2648,
      "屿": 2649,
      "岛": 2650,
      "岡": 2651,
      "岩": 2652,
      "岬": 2653,
      "岳": 2654,
      "峠": 2655,
      "峡": 2656,
      "峪": 2657,
      "峰": 2658,
      "島": 2659,
      "崇": 2660,
      "崎": 2661,
      "崩": 2662,
      "崽": 2663,
      "嵐": 2664,
      "嵩": 2665,
      "嶋": 2666,
      "嶺": 2667,
      "嶽": 2668,
      "川": 2669,
      "州": 2670,
      "巡": 2671,
      "工": 2672,
      "左": 2673,
      "巧": 2674,
      "巨": 2675,
      "差": 2676,
      "己": 2677,
      "已": 2678,
      "巴": 2679,
      "巻": 2680,
      "巾": 2681,
      "市": 2682,
      "布": 2683,
      "帆": 2684,
      "希": 2685,
      "帝": 2686,
      "帥": 2687,
      "師": 2688,
      "席": 2689,
      "帮": 2690,
      "帯": 2691,
      "帰": 2692,
      "帶": 2693,
      "常": 2694,
      "帽": 2695,
      "幅": 2696,
      "幕": 2697,
      "干": 2698,
      "平": 2699,
      "年": 2700,
      "幸": 2701,
      "幹": 2702,
      "幻": 2703,
      "幼": 2704,
      "幾": 2705,
      "广": 2706,
      "庁": 2707,
      "広": 2708,
      "庄": 2709,
      "庆": 2710,
      "库": 2711,
      "应": 2712,
      "底": 2713,
      "府": 2714,
      "废": 2715,
      "度": 2716,
      "座": 2717,
      "庫": 2718,
      "庭": 2719,
      "庶": 2720,
      "康": 2721,
      "廃": 2722,
      "廊": 2723,
      "廖": 2724,
      "廠": 2725,
      "廣": 2726,
      "延": 2727,
      "廷": 2728,
      "建": 2729,
      "开": 2730,
      "弁": 2731,
      "异": 2732,
      "弊": 2733,
      "式": 2734,
      "弓": 2735,
      "引": 2736,
      "弘": 2737,
      "弟": 2738,
      "张": 2739,
      "弥": 2740,
      "張": 2741,
      "強": 2742,
      "弹": 2743,
      "强": 2744,
      "弾": 2745,
      "彎": 2746,
      "当": 2747,
      "录": 2748,
      "彙": 2749,
      "形": 2750,
      "彦": 2751,
      "彩": 2752,
      "彰": 2753,
      "影": 2754,
      "役": 2755,
      "彼": 2756,
      "征": 2757,
      "待": 2758,
      "很": 2759,
      "律": 2760,
      "後": 2761,
      "徐": 2762,
      "徒": 2763,
      "得": 2764,
      "從": 2765,
      "御": 2766,
      "復": 2767,
      "循": 2768,
      "微": 2769,
      "徳": 2770,
      "徵": 2771,
      "德": 2772,
      "徽": 2773,
      "心": 2774,
      "必": 2775,
      "忍": 2776,
      "志": 2777,
      "忘": 2778,
      "忙": 2779,
      "応": 2780,
      "忠": 2781,
      "快": 2782,
      "念": 2783,
      "怀": 2784,
      "态": 2785,
      "怒": 2786,
      "怕": 2787,
      "思": 2788,
      "怡": 2789,
      "急": 2790,
      "性": 2791,
      "怪": 2792,
      "总": 2793,
      "恋": 2794,
      "恐": 2795,
      "恠": 2796,
      "恢": 2797,
      "恥": 2798,
      "恩": 2799,
      "恭": 2800,
      "息": 2801,
      "恵": 2802,
      "恶": 2803,
      "悟": 2804,
      "患": 2805,
      "悩": 2806,
      "悪": 2807,
      "悲": 2808,
      "情": 2809,
      "惑": 2810,
      "惜": 2811,
      "惟": 2812,
      "惠": 2813,
      "惡": 2814,
      "想": 2815,
      "惺": 2816,
      "愉": 2817,
      "意": 2818,
      "愕": 2819,
      "愚": 2820,
      "愛": 2821,
      "感": 2822,
      "慈": 2823,
      "態": 2824,
      "慧": 2825,
      "慮": 2826,
      "慰": 2827,
      "慶": 2828,
      "憂": 2829,
      "憤": 2830,
      "憧": 2831,
      "憬": 2832,
      "憶": 2833,
      "憾": 2834,
      "應": 2835,
      "懐": 2836,
      "懲": 2837,
      "懸": 2838,
      "懿": 2839,
      "戀": 2840,
      "戈": 2841,
      "戉": 2842,
      "戏": 2843,
      "成": 2844,
      "我": 2845,
      "戒": 2846,
      "或": 2847,
      "戟": 2848,
      "戦": 2849,
      "戰": 2850,
      "戳": 2851,
      "戴": 2852,
      "戻": 2853,
      "房": 2854,
      "所": 2855,
      "扁": 2856,
      "扉": 2857,
      "手": 2858,
      "才": 2859,
      "扒": 2860,
      "打": 2861,
      "払": 2862,
      "扱": 2863,
      "批": 2864,
      "承": 2865,
      "技": 2866,
      "把": 2867,
      "抑": 2868,
      "抓": 2869,
      "投": 2870,
      "抗": 2871,
      "折": 2872,
      "抜": 2873,
      "択": 2874,
      "抢": 2875,
      "护": 2876,
      "披": 2877,
      "抱": 2878,
      "抵": 2879,
      "押": 2880,
      "担": 2881,
      "拉": 2882,
      "拍": 2883,
      "拒": 2884,
      "拘": 2885,
      "拙": 2886,
      "招": 2887,
      "拠": 2888,
      "拭": 2889,
      "拿": 2890,
      "持": 2891,
      "指": 2892,
      "按": 2893,
      "挑": 2894,
      "挙": 2895,
      "挝": 2896,
      "振": 2897,
      "捉": 2898,
      "捕": 2899,
      "捜": 2900,
      "换": 2901,
      "捨": 2902,
      "据": 2903,
      "掀": 2904,
      "授": 2905,
      "排": 2906,
      "掛": 2907,
      "採": 2908,
      "探": 2909,
      "接": 2910,
      "控": 2911,
      "推": 2912,
      "掩": 2913,
      "掲": 2914,
      "揃": 2915,
      "揍": 2916,
      "描": 2917,
      "提": 2918,
      "插": 2919,
      "揚": 2920,
      "換": 2921,
      "握": 2922,
      "援": 2923,
      "揺": 2924,
      "損": 2925,
      "搞": 2926,
      "搶": 2927,
      "携": 2928,
      "摂": 2929,
      "摄": 2930,
      "摘": 2931,
      "摩": 2932,
      "撃": 2933,
      "撒": 2934,
      "播": 2935,
      "撮": 2936,
      "撾": 2937,
      "擁": 2938,
      "操": 2939,
      "支": 2940,
      "收": 2941,
      "改": 2942,
      "攻": 2943,
      "放": 2944,
      "政": 2945,
      "故": 2946,
      "敌": 2947,
      "救": 2948,
      "敗": 2949,
      "教": 2950,
      "敢": 2951,
      "散": 2952,
      "敦": 2953,
      "敬": 2954,
      "数": 2955,
      "整": 2956,
      "敵": 2957,
      "敷": 2958,
      "文": 2959,
      "斉": 2960,
      "斌": 2961,
      "斑": 2962,
      "斗": 2963,
      "料": 2964,
      "斜": 2965,
      "断": 2966,
      "斯": 2967,
      "新": 2968,
      "方": 2969,
      "於": 2970,
      "施": 2971,
      "旅": 2972,
      "旋": 2973,
      "族": 2974,
      "旗": 2975,
      "无": 2976,
      "既": 2977,
      "日": 2978,
      "旧": 2979,
      "旨": 2980,
      "早": 2981,
      "旬": 2982,
      "旱": 2983,
      "时": 2984,
      "昆": 2985,
      "昇": 2986,
      "昌": 2987,
      "明": 2988,
      "易": 2989,
      "昔": 2990,
      "星": 2991,
      "映": 2992,
      "春": 2993,
      "昨": 2994,
      "昭": 2995,
      "是": 2996,
      "時": 2997,
      "晉": 2998,
      "晋": 2999,
      "晒": 3000,
      "晨": 3001,
      "晩": 3002,
      "普": 3003,
      "景": 3004,
      "晴": 3005,
      "晶": 3006,
      "智": 3007,
      "暁": 3008,
      "暇": 3009,
      "暑": 3010,
      "暗": 3011,
      "暫": 3012,
      "暮": 3013,
      "暴": 3014,
      "曙": 3015,
      "曜": 3016,
      "曝": 3017,
      "曰": 3018,
      "曲": 3019,
      "更": 3020,
      "書": 3021,
      "曼": 3022,
      "曾": 3023,
      "替": 3024,
      "最": 3025,
      "會": 3026,
      "月": 3027,
      "有": 3028,
      "朋": 3029,
      "服": 3030,
      "朕": 3031,
      "朗": 3032,
      "望": 3033,
      "朝": 3034,
      "期": 3035,
      "朧": 3036,
      "木": 3037,
      "未": 3038,
      "末": 3039,
      "本": 3040,
      "术": 3041,
      "朱": 3042,
      "机": 3043,
      "权": 3044,
      "李": 3045,
      "杏": 3046,
      "材": 3047,
      "村": 3048,
      "束": 3049,
      "条": 3050,
      "来": 3051,
      "杨": 3052,
      "杯": 3053,
      "杰": 3054,
      "東": 3055,
      "松": 3056,
      "板": 3057,
      "析": 3058,
      "林": 3059,
      "枘": 3060,
      "枚": 3061,
      "果": 3062,
      "枝": 3063,
      "架": 3064,
      "柄": 3065,
      "柏": 3066,
      "某": 3067,
      "染": 3068,
      "查": 3069,
      "柯": 3070,
      "柱": 3071,
      "柴": 3072,
      "査": 3073,
      "栄": 3074,
      "标": 3075,
      "校": 3076,
      "株": 3077,
      "核": 3078,
      "根": 3079,
      "格": 3080,
      "桂": 3081,
      "桃": 3082,
      "案": 3083,
      "桜": 3084,
      "桥": 3085,
      "梁": 3086,
      "梓": 3087,
      "條": 3088,
      "械": 3089,
      "棄": 3090,
      "棠": 3091,
      "森": 3092,
      "椅": 3093,
      "植": 3094,
      "検": 3095,
      "椰": 3096,
      "楊": 3097,
      "楚": 3098,
      "業": 3099,
      "極": 3100,
      "楽": 3101,
      "概": 3102,
      "榜": 3103,
      "榮": 3104,
      "構": 3105,
      "様": 3106,
      "樂": 3107,
      "樋": 3108,
      "樓": 3109,
      "標": 3110,
      "模": 3111,
      "権": 3112,
      "横": 3113,
      "樹": 3114,
      "樺": 3115,
      "橋": 3116,
      "橘": 3117,
      "橙": 3118,
      "機": 3119,
      "欠": 3120,
      "次": 3121,
      "欢": 3122,
      "欲": 3123,
      "欺": 3124,
      "欽": 3125,
      "歉": 3126,
      "歌": 3127,
      "歓": 3128,
      "止": 3129,
      "正": 3130,
      "此": 3131,
      "武": 3132,
      "歩": 3133,
      "歪": 3134,
      "歯": 3135,
      "歲": 3136,
      "歳": 3137,
      "歴": 3138,
      "死": 3139,
      "殊": 3140,
      "残": 3141,
      "殖": 3142,
      "段": 3143,
      "殺": 3144,
      "殻": 3145,
      "殿": 3146,
      "母": 3147,
      "毎": 3148,
      "每": 3149,
      "比": 3150,
      "毕": 3151,
      "毘": 3152,
      "毛": 3153,
      "氏": 3154,
      "民": 3155,
      "气": 3156,
      "気": 3157,
      "氣": 3158,
      "水": 3159,
      "氷": 3160,
      "永": 3161,
      "求": 3162,
      "汕": 3163,
      "汚": 3164,
      "汝": 3165,
      "江": 3166,
      "池": 3167,
      "污": 3168,
      "汤": 3169,
      "汪": 3170,
      "決": 3171,
      "汽": 3172,
      "沃": 3173,
      "沈": 3174,
      "沒": 3175,
      "沖": 3176,
      "沙": 3177,
      "没": 3178,
      "河": 3179,
      "沸": 3180,
      "治": 3181,
      "沿": 3182,
      "況": 3183,
      "泉": 3184,
      "法": 3185,
      "波": 3186,
      "泣": 3187,
      "泥": 3188,
      "注": 3189,
      "泰": 3190,
      "泳": 3191,
      "洋": 3192,
      "洗": 3193,
      "洛": 3194,
      "洞": 3195,
      "津": 3196,
      "洪": 3197,
      "洱": 3198,
      "活": 3199,
      "派": 3200,
      "流": 3201,
      "浙": 3202,
      "浜": 3203,
      "浦": 3204,
      "浪": 3205,
      "浬": 3206,
      "浮": 3207,
      "浴": 3208,
      "海": 3209,
      "消": 3210,
      "涙": 3211,
      "涛": 3212,
      "涧": 3213,
      "涯": 3214,
      "涵": 3215,
      "涼": 3216,
      "淑": 3217,
      "淡": 3218,
      "淦": 3219,
      "淨": 3220,
      "淫": 3221,
      "深": 3222,
      "淳": 3223,
      "混": 3224,
      "添": 3225,
      "清": 3226,
      "済": 3227,
      "渓": 3228,
      "減": 3229,
      "渠": 3230,
      "渡": 3231,
      "渦": 3232,
      "温": 3233,
      "測": 3234,
      "港": 3235,
      "游": 3236,
      "渾": 3237,
      "湖": 3238,
      "湛": 3239,
      "湯": 3240,
      "湾": 3241,
      "湿": 3242,
      "満": 3243,
      "源": 3244,
      "準": 3245,
      "溢": 3246,
      "滅": 3247,
      "滑": 3248,
      "满": 3249,
      "滩": 3250,
      "滲": 3251,
      "滴": 3252,
      "漁": 3253,
      "漏": 3254,
      "演": 3255,
      "漠": 3256,
      "漢": 3257,
      "漫": 3258,
      "漯": 3259,
      "潜": 3260,
      "潤": 3261,
      "潮": 3262,
      "潰": 3263,
      "澤": 3264,
      "激": 3265,
      "濃": 3266,
      "濟": 3267,
      "濡": 3268,
      "濱": 3269,
      "濺": 3270,
      "瀚": 3271,
      "瀬": 3272,
      "灘": 3273,
      "灣": 3274,
      "火": 3275,
      "灯": 3276,
      "灵": 3277,
      "災": 3278,
      "炁": 3279,
      "炉": 3280,
      "炎": 3281,
      "炫": 3282,
      "炮": 3283,
      "点": 3284,
      "為": 3285,
      "烈": 3286,
      "热": 3287,
      "焉": 3288,
      "焚": 3289,
      "無": 3290,
      "焦": 3291,
      "然": 3292,
      "焼": 3293,
      "照": 3294,
      "煽": 3295,
      "熱": 3296,
      "燃": 3297,
      "燕": 3298,
      "營": 3299,
      "燮": 3300,
      "爆": 3301,
      "爬": 3302,
      "爲": 3303,
      "爵": 3304,
      "父": 3305,
      "爷": 3306,
      "爸": 3307,
      "爾": 3308,
      "牆": 3309,
      "片": 3310,
      "版": 3311,
      "牌": 3312,
      "牙": 3313,
      "牛": 3314,
      "牧": 3315,
      "物": 3316,
      "牲": 3317,
      "特": 3318,
      "犠": 3319,
      "犬": 3320,
      "犯": 3321,
      "状": 3322,
      "狂": 3323,
      "狒": 3324,
      "狗": 3325,
      "独": 3326,
      "狭": 3327,
      "猛": 3328,
      "猪": 3329,
      "猫": 3330,
      "献": 3331,
      "猴": 3332,
      "猿": 3333,
      "獨": 3334,
      "獲": 3335,
      "獸": 3336,
      "獻": 3337,
      "玄": 3338,
      "率": 3339,
      "玉": 3340,
      "王": 3341,
      "玩": 3342,
      "环": 3343,
      "现": 3344,
      "玲": 3345,
      "珍": 3346,
      "現": 3347,
      "球": 3348,
      "琅": 3349,
      "理": 3350,
      "琉": 3351,
      "琊": 3352,
      "琢": 3353,
      "琪": 3354,
      "琴": 3355,
      "琼": 3356,
      "瑋": 3357,
      "瑛": 3358,
      "瑞": 3359,
      "瑶": 3360,
      "璐": 3361,
      "環": 3362,
      "瓊": 3363,
      "瓶": 3364,
      "生": 3365,
      "産": 3366,
      "用": 3367,
      "田": 3368,
      "由": 3369,
      "甲": 3370,
      "申": 3371,
      "电": 3372,
      "男": 3373,
      "甸": 3374,
      "町": 3375,
      "画": 3376,
      "界": 3377,
      "留": 3378,
      "畜": 3379,
      "畢": 3380,
      "略": 3381,
      "番": 3382,
      "畫": 3383,
      "異": 3384,
      "疆": 3385,
      "疑": 3386,
      "疲": 3387,
      "疾": 3388,
      "病": 3389,
      "症": 3390,
      "痛": 3391,
      "痩": 3392,
      "癌": 3393,
      "癒": 3394,
      "発": 3395,
      "登": 3396,
      "白": 3397,
      "百": 3398,
      "皃": 3399,
      "的": 3400,
      "皆": 3401,
      "皇": 3402,
      "皮": 3403,
      "盆": 3404,
      "益": 3405,
      "监": 3406,
      "盖": 3407,
      "盗": 3408,
      "盛": 3409,
      "盟": 3410,
      "監": 3411,
      "盤": 3412,
      "目": 3413,
      "直": 3414,
      "相": 3415,
      "盾": 3416,
      "省": 3417,
      "看": 3418,
      "県": 3419,
      "真": 3420,
      "眠": 3421,
      "眺": 3422,
      "眼": 3423,
      "眾": 3424,
      "着": 3425,
      "督": 3426,
      "睦": 3427,
      "睿": 3428,
      "瞎": 3429,
      "瞑": 3430,
      "瞬": 3431,
      "瞰": 3432,
      "瞳": 3433,
      "矛": 3434,
      "矢": 3435,
      "矣": 3436,
      "知": 3437,
      "短": 3438,
      "矮": 3439,
      "石": 3440,
      "砂": 3441,
      "研": 3442,
      "砲": 3443,
      "破": 3444,
      "硬": 3445,
      "碑": 3446,
      "確": 3447,
      "碼": 3448,
      "磁": 3449,
      "磨": 3450,
      "礁": 3451,
      "礎": 3452,
      "示": 3453,
      "礼": 3454,
      "社": 3455,
      "祈": 3456,
      "祐": 3457,
      "祓": 3458,
      "祝": 3459,
      "神": 3460,
      "祥": 3461,
      "票": 3462,
      "祭": 3463,
      "祺": 3464,
      "禁": 3465,
      "禊": 3466,
      "福": 3467,
      "禕": 3468,
      "禧": 3469,
      "禮": 3470,
      "离": 3471,
      "禾": 3472,
      "秀": 3473,
      "私": 3474,
      "秋": 3475,
      "种": 3476,
      "科": 3477,
      "秒": 3478,
      "秘": 3479,
      "秦": 3480,
      "称": 3481,
      "移": 3482,
      "程": 3483,
      "稍": 3484,
      "税": 3485,
      "種": 3486,
      "稲": 3487,
      "稻": 3488,
      "稼": 3489,
      "稽": 3490,
      "稿": 3491,
      "穀": 3492,
      "積": 3493,
      "穏": 3494,
      "究": 3495,
      "穹": 3496,
      "空": 3497,
      "穿": 3498,
      "突": 3499,
      "窝": 3500,
      "立": 3501,
      "站": 3502,
      "竜": 3503,
      "章": 3504,
      "童": 3505,
      "端": 3506,
      "竹": 3507,
      "笑": 3508,
      "笔": 3509,
      "笛": 3510,
      "符": 3511,
      "第": 3512,
      "筆": 3513,
      "等": 3514,
      "筋": 3515,
      "筑": 3516,
      "答": 3517,
      "签": 3518,
      "简": 3519,
      "箇": 3520,
      "算": 3521,
      "箝": 3522,
      "管": 3523,
      "箱": 3524,
      "節": 3525,
      "範": 3526,
      "築": 3527,
      "篝": 3528,
      "篤": 3529,
      "簡": 3530,
      "簾": 3531,
      "籍": 3532,
      "米": 3533,
      "类": 3534,
      "粉": 3535,
      "粋": 3536,
      "粒": 3537,
      "粵": 3538,
      "精": 3539,
      "糞": 3540,
      "系": 3541,
      "紀": 3542,
      "約": 3543,
      "純": 3544,
      "紙": 3545,
      "級": 3546,
      "紛": 3547,
      "素": 3548,
      "索": 3549,
      "紫": 3550,
      "累": 3551,
      "細": 3552,
      "紹": 3553,
      "終": 3554,
      "組": 3555,
      "絆": 3556,
      "経": 3557,
      "結": 3558,
      "絞": 3559,
      "絡": 3560,
      "給": 3561,
      "統": 3562,
      "絲": 3563,
      "絵": 3564,
      "絶": 3565,
      "經": 3566,
      "継": 3567,
      "続": 3568,
      "綜": 3569,
      "綠": 3570,
      "維": 3571,
      "綱": 3572,
      "網": 3573,
      "綺": 3574,
      "綾": 3575,
      "総": 3576,
      "緑": 3577,
      "緒": 3578,
      "線": 3579,
      "締": 3580,
      "編": 3581,
      "緩": 3582,
      "緯": 3583,
      "練": 3584,
      "縁": 3585,
      "總": 3586,
      "繁": 3587,
      "繋": 3588,
      "織": 3589,
      "繭": 3590,
      "繰": 3591,
      "纏": 3592,
      "红": 3593,
      "纪": 3594,
      "纯": 3595,
      "线": 3596,
      "终": 3597,
      "经": 3598,
      "结": 3599,
      "给": 3600,
      "统": 3601,
      "绥": 3602,
      "继": 3603,
      "续": 3604,
      "维": 3605,
      "综": 3606,
      "缩": 3607,
      "缶": 3608,
      "缽": 3609,
      "网": 3610,
      "罗": 3611,
      "罠": 3612,
      "罪": 3613,
      "置": 3614,
      "罰": 3615,
      "署": 3616,
      "罵": 3617,
      "羅": 3618,
      "羊": 3619,
      "美": 3620,
      "羞": 3621,
      "群": 3622,
      "義": 3623,
      "羽": 3624,
      "翌": 3625,
      "習": 3626,
      "翻": 3627,
      "翼": 3628,
      "耀": 3629,
      "老": 3630,
      "考": 3631,
      "者": 3632,
      "而": 3633,
      "耐": 3634,
      "耕": 3635,
      "耽": 3636,
      "聋": 3637,
      "职": 3638,
      "联": 3639,
      "聖": 3640,
      "聞": 3641,
      "聯": 3642,
      "職": 3643,
      "聽": 3644,
      "肇": 3645,
      "肉": 3646,
      "肋": 3647,
      "肌": 3648,
      "肏": 3649,
      "肝": 3650,
      "肠": 3651,
      "育": 3652,
      "背": 3653,
      "胎": 3654,
      "胞": 3655,
      "胡": 3656,
      "胸": 3657,
      "能": 3658,
      "脈": 3659,
      "脚": 3660,
      "脩": 3661,
      "脱": 3662,
      "脳": 3663,
      "腐": 3664,
      "腕": 3665,
      "腚": 3666,
      "腰": 3667,
      "腺": 3668,
      "膏": 3669,
      "膝": 3670,
      "膠": 3671,
      "膳": 3672,
      "臓": 3673,
      "臣": 3674,
      "臥": 3675,
      "臨": 3676,
      "自": 3677,
      "臭": 3678,
      "至": 3679,
      "致": 3680,
      "臺": 3681,
      "舆": 3682,
      "興": 3683,
      "舊": 3684,
      "舌": 3685,
      "舞": 3686,
      "航": 3687,
      "般": 3688,
      "船": 3689,
      "艤": 3690,
      "艦": 3691,
      "良": 3692,
      "色": 3693,
      "艾": 3694,
      "节": 3695,
      "芝": 3696,
      "花": 3697,
      "芳": 3698,
      "芸": 3699,
      "苍": 3700,
      "苏": 3701,
      "苑": 3702,
      "苟": 3703,
      "若": 3704,
      "苦": 3705,
      "英": 3706,
      "茂": 3707,
      "范": 3708,
      "茨": 3709,
      "茵": 3710,
      "茶": 3711,
      "草": 3712,
      "荒": 3713,
      "荷": 3714,
      "莉": 3715,
      "莫": 3716,
      "莱": 3717,
      "菊": 3718,
      "菜": 3719,
      "菩": 3720,
      "華": 3721,
      "菲": 3722,
      "萄": 3723,
      "萊": 3724,
      "萩": 3725,
      "萬": 3726,
      "落": 3727,
      "葉": 3728,
      "著": 3729,
      "葡": 3730,
      "董": 3731,
      "葬": 3732,
      "蒜": 3733,
      "蓋": 3734,
      "蓝": 3735,
      "蔑": 3736,
      "蔡": 3737,
      "蔣": 3738,
      "蔵": 3739,
      "蔽": 3740,
      "蕃": 3741,
      "薄": 3742,
      "薇": 3743,
      "薩": 3744,
      "薫": 3745,
      "藍": 3746,
      "藏": 3747,
      "藝": 3748,
      "藤": 3749,
      "藥": 3750,
      "蘇": 3751,
      "蘭": 3752,
      "虎": 3753,
      "虐": 3754,
      "處": 3755,
      "虚": 3756,
      "號": 3757,
      "虫": 3758,
      "蚕": 3759,
      "蛇": 3760,
      "蛛": 3761,
      "蜘": 3762,
      "蝦": 3763,
      "蝶": 3764,
      "融": 3765,
      "螺": 3766,
      "蟠": 3767,
      "蟹": 3768,
      "蠛": 3769,
      "蠻": 3770,
      "血": 3771,
      "衆": 3772,
      "行": 3773,
      "術": 3774,
      "街": 3775,
      "衛": 3776,
      "衝": 3777,
      "衡": 3778,
      "衣": 3779,
      "表": 3780,
      "衰": 3781,
      "袋": 3782,
      "袖": 3783,
      "被": 3784,
      "裁": 3785,
      "裂": 3786,
      "装": 3787,
      "裏": 3788,
      "裕": 3789,
      "補": 3790,
      "裡": 3791,
      "裳": 3792,
      "裴": 3793,
      "裸": 3794,
      "製": 3795,
      "複": 3796,
      "褐": 3797,
      "褒": 3798,
      "襲": 3799,
      "西": 3800,
      "要": 3801,
      "覆": 3802,
      "見": 3803,
      "規": 3804,
      "視": 3805,
      "覚": 3806,
      "覧": 3807,
      "親": 3808,
      "観": 3809,
      "覺": 3810,
      "视": 3811,
      "角": 3812,
      "解": 3813,
      "触": 3814,
      "言": 3815,
      "計": 3816,
      "討": 3817,
      "託": 3818,
      "記": 3819,
      "訟": 3820,
      "訪": 3821,
      "設": 3822,
      "許": 3823,
      "訳": 3824,
      "訴": 3825,
      "証": 3826,
      "詐": 3827,
      "評": 3828,
      "詞": 3829,
      "試": 3830,
      "詰": 3831,
      "話": 3832,
      "該": 3833,
      "詳": 3834,
      "誇": 3835,
      "誌": 3836,
      "認": 3837,
      "誐": 3838,
      "誕": 3839,
      "誘": 3840,
      "語": 3841,
      "誤": 3842,
      "説": 3843,
      "読": 3844,
      "誰": 3845,
      "調": 3846,
      "談": 3847,
      "請": 3848,
      "諏": 3849,
      "論": 3850,
      "諦": 3851,
      "諸": 3852,
      "謂": 3853,
      "謉": 3854,
      "謎": 3855,
      "講": 3856,
      "謝": 3857,
      "謨": 3858,
      "識": 3859,
      "警": 3860,
      "譯": 3861,
      "議": 3862,
      "譲": 3863,
      "護": 3864,
      "變": 3865,
      "讚": 3866,
      "计": 3867,
      "订": 3868,
      "认": 3869,
      "让": 3870,
      "记": 3871,
      "许": 3872,
      "论": 3873,
      "设": 3874,
      "证": 3875,
      "试": 3876,
      "话": 3877,
      "语": 3878,
      "误": 3879,
      "说": 3880,
      "请": 3881,
      "读": 3882,
      "调": 3883,
      "谐": 3884,
      "谢": 3885,
      "谴": 3886,
      "谷": 3887,
      "谿": 3888,
      "豆": 3889,
      "象": 3890,
      "豪": 3891,
      "貍": 3892,
      "貓": 3893,
      "貞": 3894,
      "負": 3895,
      "財": 3896,
      "貢": 3897,
      "貧": 3898,
      "販": 3899,
      "責": 3900,
      "貰": 3901,
      "貴": 3902,
      "買": 3903,
      "費": 3904,
      "貼": 3905,
      "賀": 3906,
      "資": 3907,
      "賊": 3908,
      "賑": 3909,
      "賛": 3910,
      "賞": 3911,
      "賢": 3912,
      "賦": 3913,
      "質": 3914,
      "賴": 3915,
      "購": 3916,
      "责": 3917,
      "贩": 3918,
      "贴": 3919,
      "贵": 3920,
      "费": 3921,
      "赛": 3922,
      "赤": 3923,
      "走": 3924,
      "赵": 3925,
      "起": 3926,
      "超": 3927,
      "越": 3928,
      "趙": 3929,
      "足": 3930,
      "跃": 3931,
      "跋": 3932,
      "跑": 3933,
      "距": 3934,
      "跡": 3935,
      "路": 3936,
      "跳": 3937,
      "踊": 3938,
      "踏": 3939,
      "踒": 3940,
      "踢": 3941,
      "蹦": 3942,
      "躇": 3943,
      "躊": 3944,
      "躍": 3945,
      "身": 3946,
      "躯": 3947,
      "車": 3948,
      "軍": 3949,
      "軒": 3950,
      "転": 3951,
      "軽": 3952,
      "較": 3953,
      "載": 3954,
      "輝": 3955,
      "輩": 3956,
      "轉": 3957,
      "车": 3958,
      "轨": 3959,
      "轩": 3960,
      "转": 3961,
      "辛": 3962,
      "辭": 3963,
      "辰": 3964,
      "農": 3965,
      "辺": 3966,
      "込": 3967,
      "达": 3968,
      "迂": 3969,
      "迄": 3970,
      "过": 3971,
      "迎": 3972,
      "运": 3973,
      "近": 3974,
      "返": 3975,
      "还": 3976,
      "这": 3977,
      "远": 3978,
      "违": 3979,
      "连": 3980,
      "迟": 3981,
      "迤": 3982,
      "迦": 3983,
      "述": 3984,
      "迷": 3985,
      "追": 3986,
      "退": 3987,
      "送": 3988,
      "逃": 3989,
      "逆": 3990,
      "选": 3991,
      "透": 3992,
      "逐": 3993,
      "途": 3994,
      "逗": 3995,
      "這": 3996,
      "通": 3997,
      "速": 3998,
      "造": 3999,
      "連": 4000,
      "逮": 4001,
      "週": 4002,
      "進": 4003,
      "逶": 4004,
      "逸": 4005,
      "遂": 4006,
      "遅": 4007,
      "遇": 4008,
      "遊": 4009,
      "運": 4010,
      "遍": 4011,
      "過": 4012,
      "道": 4013,
      "達": 4014,
      "違": 4015,
      "遠": 4016,
      "遥": 4017,
      "適": 4018,
      "遭": 4019,
      "遮": 4020,
      "遲": 4021,
      "選": 4022,
      "遺": 4023,
      "避": 4024,
      "還": 4025,
      "邊": 4026,
      "邑": 4027,
      "邓": 4028,
      "那": 4029,
      "邦": 4030,
      "邪": 4031,
      "邸": 4032,
      "郊": 4033,
      "郎": 4034,
      "郑": 4035,
      "部": 4036,
      "郭": 4037,
      "都": 4038,
      "鄉": 4039,
      "鄭": 4040,
      "酉": 4041,
      "配": 4042,
      "酒": 4043,
      "酬": 4044,
      "酷": 4045,
      "酸": 4046,
      "醒": 4047,
      "醬": 4048,
      "釈": 4049,
      "釋": 4050,
      "里": 4051,
      "重": 4052,
      "野": 4053,
      "量": 4054,
      "金": 4055,
      "釗": 4056,
      "釣": 4057,
      "鈍": 4058,
      "鈡": 4059,
      "鈴": 4060,
      "鉄": 4061,
      "鉅": 4062,
      "銀": 4063,
      "銘": 4064,
      "鋼": 4065,
      "錄": 4066,
      "錢": 4067,
      "錨": 4068,
      "錫": 4069,
      "錬": 4070,
      "錯": 4071,
      "録": 4072,
      "鎖": 4073,
      "鏞": 4074,
      "鏡": 4075,
      "鑑": 4076,
      "钉": 4077,
      "钟": 4078,
      "钧": 4079,
      "钱": 4080,
      "锅": 4081,
      "锋": 4082,
      "镇": 4083,
      "長": 4084,
      "长": 4085,
      "門": 4086,
      "閉": 4087,
      "開": 4088,
      "閑": 4089,
      "間": 4090,
      "関": 4091,
      "閣": 4092,
      "閩": 4093,
      "閲": 4094,
      "閻": 4095,
      "闘": 4096,
      "關": 4097,
      "门": 4098,
      "问": 4099,
      "闲": 4100,
      "阅": 4101,
      "阱": 4102,
      "防": 4103,
      "阳": 4104,
      "阴": 4105,
      "阶": 4106,
      "阻": 4107,
      "阿": 4108,
      "陀": 4109,
      "际": 4110,
      "陆": 4111,
      "陈": 4112,
      "降": 4113,
      "限": 4114,
      "院": 4115,
      "除": 4116,
      "陥": 4117,
      "险": 4118,
      "陰": 4119,
      "陳": 4120,
      "陵": 4121,
      "陷": 4122,
      "陸": 4123,
      "険": 4124,
      "陽": 4125,
      "隆": 4126,
      "隊": 4127,
      "隋": 4128,
      "階": 4129,
      "随": 4130,
      "隔": 4131,
      "際": 4132,
      "障": 4133,
      "隠": 4134,
      "隣": 4135,
      "險": 4136,
      "隻": 4137,
      "难": 4138,
      "雀": 4139,
      "雁": 4140,
      "雄": 4141,
      "雅": 4142,
      "集": 4143,
      "雇": 4144,
      "雉": 4145,
      "雑": 4146,
      "雞": 4147,
      "離": 4148,
      "難": 4149,
      "雨": 4150,
      "雪": 4151,
      "雲": 4152,
      "零": 4153,
      "雷": 4154,
      "電": 4155,
      "需": 4156,
      "霊": 4157,
      "霜": 4158,
      "霧": 4159,
      "露": 4160,
      "霸": 4161,
      "靈": 4162,
      "青": 4163,
      "静": 4164,
      "非": 4165,
      "靠": 4166,
      "面": 4167,
      "革": 4168,
      "靴": 4169,
      "韓": 4170,
      "音": 4171,
      "韻": 4172,
      "響": 4173,
      "頁": 4174,
      "頃": 4175,
      "項": 4176,
      "順": 4177,
      "須": 4178,
      "預": 4179,
      "頑": 4180,
      "頒": 4181,
      "領": 4182,
      "頬": 4183,
      "頭": 4184,
      "頼": 4185,
      "題": 4186,
      "額": 4187,
      "顏": 4188,
      "顔": 4189,
      "願": 4190,
      "類": 4191,
      "顧": 4192,
      "顯": 4193,
      "页": 4194,
      "顶": 4195,
      "项": 4196,
      "顺": 4197,
      "顾": 4198,
      "频": 4199,
      "题": 4200,
      "颜": 4201,
      "额": 4202,
      "風": 4203,
      "风": 4204,
      "飛": 4205,
      "飞": 4206,
      "食": 4207,
      "飲": 4208,
      "飽": 4209,
      "養": 4210,
      "餐": 4211,
      "餘": 4212,
      "館": 4213,
      "饗": 4214,
      "馆": 4215,
      "馒": 4216,
      "首": 4217,
      "香": 4218,
      "馬": 4219,
      "駅": 4220,
      "駆": 4221,
      "駈": 4222,
      "騎": 4223,
      "騒": 4224,
      "験": 4225,
      "驚": 4226,
      "驪": 4227,
      "马": 4228,
      "驼": 4229,
      "骆": 4230,
      "骨": 4231,
      "體": 4232,
      "高": 4233,
      "髙": 4234,
      "髢": 4235,
      "髪": 4236,
      "髻": 4237,
      "鬯": 4238,
      "鬼": 4239,
      "魂": 4240,
      "魅": 4241,
      "魏": 4242,
      "魔": 4243,
      "魚": 4244,
      "魯": 4245,
      "鮎": 4246,
      "鮑": 4247,
      "鮮": 4248,
      "鱿": 4249,
      "鲍": 4250,
      "鲸": 4251,
      "鳥": 4252,
      "鳩": 4253,
      "鳳": 4254,
      "鳴": 4255,
      "鴉": 4256,
      "鴻": 4257,
      "鶴": 4258,
      "鸞": 4259,
      "鸡": 4260,
      "鸦": 4261,
      "鸽": 4262,
      "鹑": 4263,
      "鹿": 4264,
      "麓": 4265,
      "麗": 4266,
      "麥": 4267,
      "麺": 4268,
      "麻": 4269,
      "麼": 4270,
      "麿": 4271,
      "黃": 4272,
      "黄": 4273,
      "黑": 4274,
      "黒": 4275,
      "默": 4276,
      "黙": 4277,
      "點": 4278,
      "鼓": 4279,
      "鼠": 4280,
      "鼻": 4281,
      "齋": 4282,
      "齒": 4283,
      "齡": 4284,
      "齢": 4285,
      "龃": 4286,
      "龄": 4287,
      "龉": 4288,
      "龍": 4289,
      "龔": 4290,
      "龙": 4291,
      "龜": 4292,
      "ꜣ": 4293,
      "ꜥ": 4294,
      "꞉": 4295,
      "ꠁ": 4296,
      "ꠃ": 4297,
      "ꠅ": 4298,
      "꠆": 4299,
      "ꠉ": 4300,
      "ꠌ": 4301,
      "ꠎ": 4302,
      "ꠑ": 4303,
      "ꠖ": 4304,
      "ꠘ": 4305,
      "ꠡ": 4306,
      "ꠤ": 4307,
      "ꠥ": 4308,
      "ꠦ": 4309,
      "ꦁ": 4310,
      "ꦂ": 4311,
      "ꦈ": 4312,
      "ꦏ": 4313,
      "ꦔ": 4314,
      "ꦛ": 4315,
      "ꦝ": 4316,
      "ꦟ": 4317,
      "ꦠ": 4318,
      "ꦢ": 4319,
      "ꦤ": 4320,
      "ꦥ": 4321,
      "ꦧ": 4322,
      "ꦩ": 4323,
      "ꦫ": 4324,
      "ꦭ": 4325,
      "ꦮ": 4326,
      "ꦱ": 4327,
      "ꦲ": 4328,
      "ꦴ": 4329,
      "ꦶ": 4330,
      "ꦸ": 4331,
      "ꦺ": 4332,
      "ꦼ": 4333,
      "꧀": 4334,
      "꧉": 4335,
      "꧋": 4336,
      "가": 4337,
      "각": 4338,
      "간": 4339,
      "갈": 4340,
      "감": 4341,
      "갑": 4342,
      "갓": 4343,
      "갔": 4344,
      "강": 4345,
      "갖": 4346,
      "같": 4347,
      "개": 4348,
      "걔": 4349,
      "거": 4350,
      "걱": 4351,
      "건": 4352,
      "걸": 4353,
      "검": 4354,
      "겁": 4355,
      "것": 4356,
      "게": 4357,
      "겠": 4358,
      "겨": 4359,
      "격": 4360,
      "견": 4361,
      "결": 4362,
      "겹": 4363,
      "겼": 4364,
      "경": 4365,
      "계": 4366,
      "고": 4367,
      "곡": 4368,
      "곤": 4369,
      "곧": 4370,
      "골": 4371,
      "곰": 4372,
      "곱": 4373,
      "공": 4374,
      "과": 4375,
      "곽": 4376,
      "관": 4377,
      "광": 4378,
      "괘": 4379,
      "괴": 4380,
      "굉": 4381,
      "교": 4382,
      "구": 4383,
      "국": 4384,
      "군": 4385,
      "굴": 4386,
      "궁": 4387,
      "권": 4388,
      "귀": 4389,
      "규": 4390,
      "균": 4391,
      "그": 4392,
      "극": 4393,
      "근": 4394,
      "글": 4395,
      "금": 4396,
      "급": 4397,
      "긋": 4398,
      "기": 4399,
      "긴": 4400,
      "길": 4401,
      "김": 4402,
      "깃": 4403,
      "까": 4404,
      "깎": 4405,
      "깐": 4406,
      "깔": 4407,
      "깜": 4408,
      "깨": 4409,
      "꺼": 4410,
      "껀": 4411,
      "껄": 4412,
      "께": 4413,
      "꼬": 4414,
      "꼭": 4415,
      "꼼": 4416,
      "꽃": 4417,
      "꾀": 4418,
      "꾸": 4419,
      "꾼": 4420,
      "꿀": 4421,
      "꿔": 4422,
      "끄": 4423,
      "끈": 4424,
      "끌": 4425,
      "끔": 4426,
      "끝": 4427,
      "끼": 4428,
      "낀": 4429,
      "낄": 4430,
      "나": 4431,
      "낙": 4432,
      "낚": 4433,
      "난": 4434,
      "날": 4435,
      "남": 4436,
      "났": 4437,
      "낳": 4438,
      "내": 4439,
      "낸": 4440,
      "낼": 4441,
      "냈": 4442,
      "냐": 4443,
      "냥": 4444,
      "너": 4445,
      "넉": 4446,
      "넌": 4447,
      "널": 4448,
      "넓": 4449,
      "넘": 4450,
      "넛": 4451,
      "넝": 4452,
      "넣": 4453,
      "네": 4454,
      "넥": 4455,
      "넷": 4456,
      "녀": 4457,
      "년": 4458,
      "녔": 4459,
      "녕": 4460,
      "노": 4461,
      "녹": 4462,
      "놈": 4463,
      "농": 4464,
      "높": 4465,
      "놓": 4466,
      "놔": 4467,
      "누": 4468,
      "눈": 4469,
      "뉴": 4470,
      "느": 4471,
      "늑": 4472,
      "는": 4473,
      "늘": 4474,
      "능": 4475,
      "니": 4476,
      "닌": 4477,
      "닐": 4478,
      "님": 4479,
      "닛": 4480,
      "다": 4481,
      "단": 4482,
      "달": 4483,
      "담": 4484,
      "닷": 4485,
      "당": 4486,
      "대": 4487,
      "댁": 4488,
      "댄": 4489,
      "더": 4490,
      "덕": 4491,
      "던": 4492,
      "덜": 4493,
      "덤": 4494,
      "데": 4495,
      "덴": 4496,
      "뎌": 4497,
      "도": 4498,
      "독": 4499,
      "돈": 4500,
      "돌": 4501,
      "돕": 4502,
      "동": 4503,
      "돼": 4504,
      "됐": 4505,
      "되": 4506,
      "된": 4507,
      "될": 4508,
      "됨": 4509,
      "두": 4510,
      "둔": 4511,
      "둘": 4512,
      "둬": 4513,
      "뒤": 4514,
      "뒷": 4515,
      "드": 4516,
      "득": 4517,
      "든": 4518,
      "듣": 4519,
      "들": 4520,
      "듯": 4521,
      "등": 4522,
      "디": 4523,
      "딘": 4524,
      "딨": 4525,
      "딩": 4526,
      "따": 4527,
      "딸": 4528,
      "때": 4529,
      "땐": 4530,
      "떠": 4531,
      "떤": 4532,
      "떨": 4533,
      "떳": 4534,
      "떻": 4535,
      "또": 4536,
      "똑": 4537,
      "뚝": 4538,
      "뚫": 4539,
      "뚱": 4540,
      "뛰": 4541,
      "뜨": 4542,
      "뜻": 4543,
      "라": 4544,
      "락": 4545,
      "란": 4546,
      "랄": 4547,
      "람": 4548,
      "랍": 4549,
      "랐": 4550,
      "랑": 4551,
      "래": 4552,
      "랙": 4553,
      "랜": 4554,
      "램": 4555,
      "랩": 4556,
      "랬": 4557,
      "략": 4558,
      "러": 4559,
      "럭": 4560,
      "런": 4561,
      "럼": 4562,
      "럽": 4563,
      "렀": 4564,
      "렁": 4565,
      "렇": 4566,
      "레": 4567,
      "렉": 4568,
      "려": 4569,
      "력": 4570,
      "련": 4571,
      "렬": 4572,
      "렸": 4573,
      "령": 4574,
      "례": 4575,
      "로": 4576,
      "록": 4577,
      "론": 4578,
      "롤": 4579,
      "롭": 4580,
      "롯": 4581,
      "료": 4582,
      "룡": 4583,
      "루": 4584,
      "룩": 4585,
      "룰": 4586,
      "류": 4587,
      "률": 4588,
      "륭": 4589,
      "르": 4590,
      "른": 4591,
      "를": 4592,
      "름": 4593,
      "릅": 4594,
      "릉": 4595,
      "리": 4596,
      "린": 4597,
      "릴": 4598,
      "림": 4599,
      "립": 4600,
      "링": 4601,
      "마": 4602,
      "막": 4603,
      "만": 4604,
      "많": 4605,
      "말": 4606,
      "맘": 4607,
      "맙": 4608,
      "망": 4609,
      "맞": 4610,
      "맡": 4611,
      "매": 4612,
      "맺": 4613,
      "머": 4614,
      "먹": 4615,
      "먼": 4616,
      "멀": 4617,
      "멋": 4618,
      "멍": 4619,
      "메": 4620,
      "며": 4621,
      "면": 4622,
      "멸": 4623,
      "명": 4624,
      "몇": 4625,
      "모": 4626,
      "목": 4627,
      "몬": 4628,
      "몰": 4629,
      "못": 4630,
      "몽": 4631,
      "무": 4632,
      "문": 4633,
      "묻": 4634,
      "물": 4635,
      "뭐": 4636,
      "뭘": 4637,
      "뮤": 4638,
      "미": 4639,
      "민": 4640,
      "믿": 4641,
      "밀": 4642,
      "밍": 4643,
      "및": 4644,
      "바": 4645,
      "박": 4646,
      "밖": 4647,
      "반": 4648,
      "받": 4649,
      "발": 4650,
      "밝": 4651,
      "밥": 4652,
      "방": 4653,
      "배": 4654,
      "백": 4655,
      "버": 4656,
      "벅": 4657,
      "번": 4658,
      "벌": 4659,
      "범": 4660,
      "법": 4661,
      "벗": 4662,
      "베": 4663,
      "벤": 4664,
      "벨": 4665,
      "벽": 4666,
      "변": 4667,
      "별": 4668,
      "병": 4669,
      "보": 4670,
      "복": 4671,
      "본": 4672,
      "볼": 4673,
      "봉": 4674,
      "봐": 4675,
      "봣": 4676,
      "봤": 4677,
      "뵙": 4678,
      "부": 4679,
      "북": 4680,
      "분": 4681,
      "불": 4682,
      "붉": 4683,
      "붙": 4684,
      "뷰": 4685,
      "브": 4686,
      "블": 4687,
      "비": 4688,
      "빈": 4689,
      "빌": 4690,
      "빙": 4691,
      "빚": 4692,
      "빛": 4693,
      "빠": 4694,
      "빨": 4695,
      "빵": 4696,
      "뻣": 4697,
      "뻥": 4698,
      "뽀": 4699,
      "뽑": 4700,
      "뿔": 4701,
      "쁘": 4702,
      "쁜": 4703,
      "삐": 4704,
      "사": 4705,
      "삭": 4706,
      "산": 4707,
      "살": 4708,
      "삶": 4709,
      "삼": 4710,
      "상": 4711,
      "새": 4712,
      "생": 4713,
      "서": 4714,
      "석": 4715,
      "선": 4716,
      "설": 4717,
      "섬": 4718,
      "섭": 4719,
      "섰": 4720,
      "성": 4721,
      "세": 4722,
      "센": 4723,
      "셈": 4724,
      "션": 4725,
      "셧": 4726,
      "셨": 4727,
      "소": 4728,
      "속": 4729,
      "손": 4730,
      "솔": 4731,
      "송": 4732,
      "쇠": 4733,
      "쇼": 4734,
      "수": 4735,
      "숙": 4736,
      "순": 4737,
      "술": 4738,
      "숨": 4739,
      "쉬": 4740,
      "쉽": 4741,
      "쉿": 4742,
      "슈": 4743,
      "스": 4744,
      "슨": 4745,
      "슬": 4746,
      "슴": 4747,
      "습": 4748,
      "슷": 4749,
      "승": 4750,
      "시": 4751,
      "식": 4752,
      "신": 4753,
      "실": 4754,
      "싫": 4755,
      "심": 4756,
      "십": 4757,
      "싶": 4758,
      "싸": 4759,
      "싼": 4760,
      "쌈": 4761,
      "쌍": 4762,
      "써": 4763,
      "썩": 4764,
      "썼": 4765,
      "쓰": 4766,
      "쓴": 4767,
      "씨": 4768,
      "씩": 4769,
      "씬": 4770,
      "씸": 4771,
      "씹": 4772,
      "아": 4773,
      "악": 4774,
      "안": 4775,
      "않": 4776,
      "알": 4777,
      "암": 4778,
      "압": 4779,
      "았": 4780,
      "앞": 4781,
      "애": 4782,
      "액": 4783,
      "앨": 4784,
      "야": 4785,
      "약": 4786,
      "양": 4787,
      "얘": 4788,
      "어": 4789,
      "억": 4790,
      "언": 4791,
      "얻": 4792,
      "얼": 4793,
      "엄": 4794,
      "업": 4795,
      "없": 4796,
      "엇": 4797,
      "었": 4798,
      "엉": 4799,
      "에": 4800,
      "엑": 4801,
      "엔": 4802,
      "엘": 4803,
      "여": 4804,
      "역": 4805,
      "연": 4806,
      "열": 4807,
      "염": 4808,
      "였": 4809,
      "영": 4810,
      "예": 4811,
      "오": 4812,
      "옥": 4813,
      "온": 4814,
      "올": 4815,
      "옮": 4816,
      "옷": 4817,
      "옹": 4818,
      "와": 4819,
      "완": 4820,
      "왔": 4821,
      "왕": 4822,
      "왜": 4823,
      "외": 4824,
      "요": 4825,
      "욕": 4826,
      "용": 4827,
      "우": 4828,
      "욱": 4829,
      "운": 4830,
      "울": 4831,
      "움": 4832,
      "웁": 4833,
      "웃": 4834,
      "워": 4835,
      "원": 4836,
      "월": 4837,
      "웟": 4838,
      "웠": 4839,
      "웬": 4840,
      "윁": 4841,
      "위": 4842,
      "윙": 4843,
      "유": 4844,
      "육": 4845,
      "윤": 4846,
      "율": 4847,
      "으": 4848,
      "은": 4849,
      "을": 4850,
      "음": 4851,
      "읍": 4852,
      "응": 4853,
      "의": 4854,
      "이": 4855,
      "익": 4856,
      "인": 4857,
      "일": 4858,
      "임": 4859,
      "입": 4860,
      "잇": 4861,
      "있": 4862,
      "잉": 4863,
      "잊": 4864,
      "자": 4865,
      "작": 4866,
      "잔": 4867,
      "잘": 4868,
      "잠": 4869,
      "잡": 4870,
      "장": 4871,
      "재": 4872,
      "저": 4873,
      "적": 4874,
      "전": 4875,
      "절": 4876,
      "젊": 4877,
      "점": 4878,
      "접": 4879,
      "정": 4880,
      "젖": 4881,
      "제": 4882,
      "젝": 4883,
      "젤": 4884,
      "져": 4885,
      "졌": 4886,
      "조": 4887,
      "족": 4888,
      "존": 4889,
      "좀": 4890,
      "종": 4891,
      "좆": 4892,
      "좋": 4893,
      "죄": 4894,
      "죠": 4895,
      "주": 4896,
      "죽": 4897,
      "준": 4898,
      "줄": 4899,
      "줌": 4900,
      "중": 4901,
      "줘": 4902,
      "줬": 4903,
      "쥐": 4904,
      "즈": 4905,
      "즉": 4906,
      "즌": 4907,
      "즘": 4908,
      "증": 4909,
      "지": 4910,
      "직": 4911,
      "진": 4912,
      "질": 4913,
      "짐": 4914,
      "집": 4915,
      "짓": 4916,
      "징": 4917,
      "짜": 4918,
      "짝": 4919,
      "짧": 4920,
      "째": 4921,
      "쨌": 4922,
      "쨍": 4923,
      "쪽": 4924,
      "쫓": 4925,
      "쯧": 4926,
      "찌": 4927,
      "찍": 4928,
      "찔": 4929,
      "차": 4930,
      "착": 4931,
      "찬": 4932,
      "찰": 4933,
      "참": 4934,
      "창": 4935,
      "찾": 4936,
      "채": 4937,
      "책": 4938,
      "챔": 4939,
      "챙": 4940,
      "처": 4941,
      "천": 4942,
      "철": 4943,
      "첩": 4944,
      "첫": 4945,
      "청": 4946,
      "체": 4947,
      "쳐": 4948,
      "쳤": 4949,
      "초": 4950,
      "총": 4951,
      "최": 4952,
      "추": 4953,
      "축": 4954,
      "춘": 4955,
      "출": 4956,
      "충": 4957,
      "춰": 4958,
      "취": 4959,
      "츠": 4960,
      "측": 4961,
      "층": 4962,
      "치": 4963,
      "칙": 4964,
      "친": 4965,
      "칠": 4966,
      "카": 4967,
      "캐": 4968,
      "캡": 4969,
      "커": 4970,
      "컨": 4971,
      "컬": 4972,
      "컴": 4973,
      "케": 4974,
      "켜": 4975,
      "켰": 4976,
      "코": 4977,
      "콘": 4978,
      "콜": 4979,
      "콧": 4980,
      "콩": 4981,
      "콸": 4982,
      "쿨": 4983,
      "쿵": 4984,
      "퀘": 4985,
      "퀴": 4986,
      "크": 4987,
      "큰": 4988,
      "클": 4989,
      "큼": 4990,
      "키": 4991,
      "킨": 4992,
      "킬": 4993,
      "킴": 4994,
      "킹": 4995,
      "타": 4996,
      "탄": 4997,
      "탈": 4998,
      "탐": 4999,
      "탑": 5000,
      "탕": 5001,
      "태": 5002,
      "택": 5003,
      "터": 5004,
      "턴": 5005,
      "텀": 5006,
      "테": 5007,
      "텐": 5008,
      "텔": 5009,
      "템": 5010,
      "토": 5011,
      "통": 5012,
      "퇴": 5013,
      "투": 5014,
      "튀": 5015,
      "트": 5016,
      "특": 5017,
      "튼": 5018,
      "틀": 5019,
      "티": 5020,
      "틴": 5021,
      "팀": 5022,
      "팅": 5023,
      "파": 5024,
      "판": 5025,
      "팔": 5026,
      "패": 5027,
      "팩": 5028,
      "팬": 5029,
      "퍼": 5030,
      "페": 5031,
      "편": 5032,
      "평": 5033,
      "폐": 5034,
      "포": 5035,
      "폭": 5036,
      "표": 5037,
      "푸": 5038,
      "풀": 5039,
      "품": 5040,
      "프": 5041,
      "픈": 5042,
      "플": 5043,
      "픔": 5044,
      "피": 5045,
      "픽": 5046,
      "필": 5047,
      "하": 5048,
      "학": 5049,
      "한": 5050,
      "할": 5051,
      "함": 5052,
      "합": 5053,
      "항": 5054,
      "해": 5055,
      "햄": 5056,
      "햇": 5057,
      "했": 5058,
      "행": 5059,
      "향": 5060,
      "허": 5061,
      "험": 5062,
      "헝": 5063,
      "헤": 5064,
      "혀": 5065,
      "현": 5066,
      "혐": 5067,
      "협": 5068,
      "혔": 5069,
      "형": 5070,
      "혜": 5071,
      "호": 5072,
      "혹": 5073,
      "혼": 5074,
      "홀": 5075,
      "홍": 5076,
      "화": 5077,
      "확": 5078,
      "환": 5079,
      "활": 5080,
      "황": 5081,
      "회": 5082,
      "획": 5083,
      "효": 5084,
      "후": 5085,
      "훈": 5086,
      "훨": 5087,
      "훼": 5088,
      "휘": 5089,
      "휭": 5090,
      "휴": 5091,
      "흑": 5092,
      "흔": 5093,
      "흘": 5094,
      "흥": 5095,
      "희": 5096,
      "히": 5097,
      "힌": 5098,
      "힐": 5099,
      "힘": 5100,
      "힙": 5101,
      "": 5102,
      "": 5103,
      "": 5104,
      "": 5105,
      "": 5106,
      "": 5107,
      "": 5108,
      "": 5109,
      "": 5110,
      "": 5111,
      "": 5112,
      "": 5113,
      "": 5114,
      "": 5115,
      "": 5116,
      "": 5117,
      "": 5118,
      "": 5119,
      "": 5120,
      "": 5121,
      "": 5122,
      "": 5123,
      "": 5124,
      "": 5125,
      "": 5126,
      "": 5127,
      "": 5128,
      "": 5129,
      "": 5130,
      "": 5131,
      "": 5132,
      "": 5133,
      "": 5134,
      "": 5135,
      "": 5136,
      "": 5137,
      "": 5138,
      "": 5139,
      "": 5140,
      "": 5141,
      "": 5142,
      "": 5143,
      "": 5144,
      "": 5145,
      "": 5146,
      "": 5147,
      "": 5148,
      "": 5149,
      "": 5150,
      "": 5151,
      "": 5152,
      "": 5153,
      "": 5154,
      "": 5155,
      "": 5156,
      "": 5157,
      "": 5158,
      "": 5159,
      "": 5160,
      "": 5161,
      "": 5162,
      "": 5163,
      "": 5164,
      "": 5165,
      "": 5166,
      "": 5167,
      "": 5168,
      "": 5169,
      "": 5170,
      "": 5171,
      "": 5172,
      "": 5173,
      "": 5174,
      "": 5175,
      "": 5176,
      "": 5177,
      "": 5178,
      "": 5179,
      "": 5180,
      "": 5181,
      "": 5182,
      "": 5183,
      "": 5184,
      "": 5185,
      "": 5186,
      "": 5187,
      "ﬀ": 5188,
      "ﬁ": 5189,
      "ﬂ": 5190,
      "ﭑ": 5191,
      "ﭒ": 5192,
      "ﭓ": 5193,
      "ﭔ": 5194,
      "ﭕ": 5195,
      "ﭖ": 5196,
      "ﭗ": 5197,
      "ﭘ": 5198,
      "ﭙ": 5199,
      "ﭚ": 5200,
      "ﭛ": 5201,
      "ﭜ": 5202,
      "ﭝ": 5203,
      "ﭮ": 5204,
      "ﭯ": 5205,
      "ﭰ": 5206,
      "ﭱ": 5207,
      "ﭲ": 5208,
      "ﭳ": 5209,
      "ﭴ": 5210,
      "ﭵ": 5211,
      "ﭶ": 5212,
      "ﭷ": 5213,
      "ﭸ": 5214,
      "ﭹ": 5215,
      "ﭺ": 5216,
      "ﭻ": 5217,
      "ﭼ": 5218,
      "ﭽ": 5219,
      "ﮍ": 5220,
      "ﮎ": 5221,
      "ﮏ": 5222,
      "ﮐ": 5223,
      "ﮑ": 5224,
      "ﮒ": 5225,
      "ﮓ": 5226,
      "ﮔ": 5227,
      "ﮕ": 5228,
      "ﮖ": 5229,
      "ﮗ": 5230,
      "ﮘ": 5231,
      "ﮢ": 5232,
      "ﮣ": 5233,
      "ﮤ": 5234,
      "ﮥ": 5235,
      "ﮦ": 5236,
      "ﮧ": 5237,
      "ﮨ": 5238,
      "ﮩ": 5239,
      "ﮪ": 5240,
      "ﮫ": 5241,
      "ﮬ": 5242,
      "ﮭ": 5243,
      "ﮮ": 5244,
      "ﮯ": 5245,
      "ﮰ": 5246,
      "ﮱ": 5247,
      "ﯓ": 5248,
      "ﯔ": 5249,
      "ﯕ": 5250,
      "ﯖ": 5251,
      "ﯗ": 5252,
      "ﯘ": 5253,
      "ﯙ": 5254,
      "ﯚ": 5255,
      "ﯛ": 5256,
      "ﯜ": 5257,
      "ﯝ": 5258,
      "ﯞ": 5259,
      "ﯟ": 5260,
      "ﯠ": 5261,
      "ﯡ": 5262,
      "ﯢ": 5263,
      "ﯣ": 5264,
      "ﯤ": 5265,
      "ﯥ": 5266,
      "ﯦ": 5267,
      "ﯱ": 5268,
      "ﯲ": 5269,
      "ﯳ": 5270,
      "ﯴ": 5271,
      "ﯵ": 5272,
      "ﯶ": 5273,
      "ﯷ": 5274,
      "ﯸ": 5275,
      "ﯹ": 5276,
      "ﯺ": 5277,
      "ﯻ": 5278,
      "ﯼ": 5279,
      "ﯽ": 5280,
      "ﯾ": 5281,
      "ﯿ": 5282,
      "ﰀ": 5283,
      "ﰁ": 5284,
      "ﰂ": 5285,
      "ﰃ": 5286,
      "ﰄ": 5287,
      "ﰅ": 5288,
      "ﰆ": 5289,
      "ﰇ": 5290,
      "ﰈ": 5291,
      "ﰉ": 5292,
      "ﰊ": 5293,
      "ﰋ": 5294,
      "ﰌ": 5295,
      "ﰍ": 5296,
      "ﰎ": 5297,
      "ﰏ": 5298,
      "ﰐ": 5299,
      "ﰑ": 5300,
      "ﰒ": 5301,
      "ﷺ": 5302,
      "︎": 5303,
      "️": 5304,
      "︵": 5305,
      "﹠": 5306,
      "﻿": 5307,
      "！": 5308,
      "％": 5309,
      "＆": 5310,
      "（": 5311,
      "）": 5312,
      "＊": 5313,
      "＋": 5314,
      "，": 5315,
      "－": 5316,
      "．": 5317,
      "／": 5318,
      "０": 5319,
      "１": 5320,
      "２": 5321,
      "３": 5322,
      "４": 5323,
      "５": 5324,
      "６": 5325,
      "７": 5326,
      "８": 5327,
      "９": 5328,
      "：": 5329,
      "；": 5330,
      "＜": 5331,
      "＝": 5332,
      "＞": 5333,
      "？": 5334,
      "Ａ": 5335,
      "Ｂ": 5336,
      "Ｃ": 5337,
      "Ｄ": 5338,
      "Ｅ": 5339,
      "Ｆ": 5340,
      "Ｇ": 5341,
      "Ｈ": 5342,
      "Ｉ": 5343,
      "Ｊ": 5344,
      "Ｋ": 5345,
      "Ｌ": 5346,
      "Ｍ": 5347,
      "Ｎ": 5348,
      "Ｏ": 5349,
      "Ｐ": 5350,
      "Ｑ": 5351,
      "Ｒ": 5352,
      "Ｓ": 5353,
      "Ｔ": 5354,
      "Ｕ": 5355,
      "Ｖ": 5356,
      "Ｗ": 5357,
      "Ｘ": 5358,
      "Ｚ": 5359,
      "［": 5360,
      "＼": 5361,
      "］": 5362,
      "＿": 5363,
      "｀": 5364,
      "ａ": 5365,
      "ｂ": 5366,
      "ｄ": 5367,
      "ｅ": 5368,
      "ｇ": 5369,
      "ｈ": 5370,
      "ｉ": 5371,
      "ｋ": 5372,
      "ｌ": 5373,
      "ｍ": 5374,
      "ｎ": 5375,
      "ｏ": 5376,
      "ｐ": 5377,
      "ｒ": 5378,
      "ｓ": 5379,
      "ｕ": 5380,
      "ｗ": 5381,
      "ｚ": 5382,
      "｜": 5383,
      "～": 5384,
      "｡": 5385,
      "｢": 5386,
      "｣": 5387,
      "､": 5388,
      "･": 5389,
      "ｨ": 5390,
      "ｱ": 5391,
      "ｲ": 5392,
      "ｽ": 5393,
      "ﾀ": 5394,
      "ﾉ": 5395,
      "ﾒ": 5396,
      "ﾔ": 5397,
      "ﾞ": 5398,
      "ﾟ": 5399,
      "￢": 5400,
      "￥": 5401,
      "￼": 5402,
      "�": 5403,
      "𐑓": 5404,
      "𐑕": 5405,
      "𐑖": 5406,
      "𐑝": 5407,
      "𐑟": 5408,
      "𐑨": 5409,
      "𐑯": 5410,
      "𐑰": 5411,
      "𐑱": 5412,
      "𐑹": 5413,
      "𐑾": 5414,
      "𐩣": 5415,
      "𐩬": 5416,
      "𐩺": 5417,
      "𓃀": 5418,
      "𓅃": 5419,
      "𓆑": 5420,
      "𓇳": 5421,
      "𓇼": 5422,
      "𓈖": 5423,
      "𓊀": 5424,
      "𓋴": 5425,
      "𓏥": 5426,
      "𝆩": 5427,
      "𝐀": 5428,
      "𝐂": 5429,
      "𝐃": 5430,
      "𝐄": 5431,
      "𝐆": 5432,
      "𝐈": 5433,
      "𝐋": 5434,
      "𝐌": 5435,
      "𝐍": 5436,
      "𝐎": 5437,
      "𝐏": 5438,
      "𝐑": 5439,
      "𝐒": 5440,
      "𝐓": 5441,
      "𝐔": 5442,
      "𝐖": 5443,
      "𝐘": 5444,
      "𝑪": 5445,
      "𝑫": 5446,
      "𝑬": 5447,
      "𝑰": 5448,
      "𝑳": 5449,
      "𝑵": 5450,
      "𝑶": 5451,
      "𝑹": 5452,
      "𝑺": 5453,
      "𝑻": 5454,
      "𝒴": 5455,
      "𝔄": 5456,
      "𝔅": 5457,
      "𝔇": 5458,
      "𝔈": 5459,
      "𝔉": 5460,
      "𝔊": 5461,
      "𝔍": 5462,
      "𝔎": 5463,
      "𝔏": 5464,
      "𝔐": 5465,
      "𝔑": 5466,
      "𝔒": 5467,
      "𝔓": 5468,
      "𝔔": 5469,
      "𝔖": 5470,
      "𝔗": 5471,
      "𝔘": 5472,
      "𝔙": 5473,
      "𝔚": 5474,
      "𝔛": 5475,
      "𝔜": 5476,
      "𝔞": 5477,
      "𝔟": 5478,
      "𝔠": 5479,
      "𝔡": 5480,
      "𝔢": 5481,
      "𝔣": 5482,
      "𝔤": 5483,
      "𝔥": 5484,
      "𝔦": 5485,
      "𝔧": 5486,
      "𝔨": 5487,
      "𝔩": 5488,
      "𝔪": 5489,
      "𝔫": 5490,
      "𝔬": 5491,
      "𝔭": 5492,
      "𝔮": 5493,
      "𝔯": 5494,
      "𝔰": 5495,
      "𝔱": 5496,
      "𝔲": 5497,
      "𝔳": 5498,
      "𝔴": 5499,
      "𝔵": 5500,
      "𝔶": 5501,
      "𝔷": 5502,
      "𝔹": 5503,
      "𝕄": 5504,
      "𝕕": 5505,
      "𝕙": 5506,
      "𝕡": 5507,
      "𝕣": 5508,
      "𝕦": 5509,
      "𝕪": 5510,
      "𝕬": 5511,
      "𝕭": 5512,
      "𝕮": 5513,
      "𝕯": 5514,
      "𝕰": 5515,
      "𝕱": 5516,
      "𝕲": 5517,
      "𝕳": 5518,
      "𝕴": 5519,
      "𝕵": 5520,
      "𝕶": 5521,
      "𝕷": 5522,
      "𝕸": 5523,
      "𝕹": 5524,
      "𝕺": 5525,
      "𝕻": 5526,
      "𝕼": 5527,
      "𝕽": 5528,
      "𝕾": 5529,
      "𝕿": 5530,
      "𝖀": 5531,
      "𝖁": 5532,
      "𝖂": 5533,
      "𝖃": 5534,
      "𝖄": 5535,
      "𝖅": 5536,
      "𝖆": 5537,
      "𝖇": 5538,
      "𝖈": 5539,
      "𝖉": 5540,
      "𝖊": 5541,
      "𝖋": 5542,
      "𝖌": 5543,
      "𝖍": 5544,
      "𝖎": 5545,
      "𝖏": 5546,
      "𝖐": 5547,
      "𝖑": 5548,
      "𝖒": 5549,
      "𝖓": 5550,
      "𝖔": 5551,
      "𝖕": 5552,
      "𝖖": 5553,
      "𝖗": 5554,
      "𝖘": 5555,
      "𝖙": 5556,
      "𝖚": 5557,
      "𝖛": 5558,
      "𝖜": 5559,
      "𝖝": 5560,
      "𝖞": 5561,
      "𝖟": 5562,
      "𝜈": 5563,
      "𝟎": 5564,
      "𝟏": 5565,
      "𝟮": 5566,
      "𝟯": 5567,
      "𝟰": 5568,
      "𝟱": 5569,
      "𝟲": 5570,
      "𝟳": 5571,
      "𝟴": 5572,
      "𝟵": 5573,
      "🆕": 5574,
      "🇦": 5575,
      "🇧": 5576,
      "🇨": 5577,
      "🇩": 5578,
      "🇪": 5579,
      "🇫": 5580,
      "🇮": 5581,
      "🇰": 5582,
      "🇱": 5583,
      "🇲": 5584,
      "🇳": 5585,
      "🇴": 5586,
      "🇵": 5587,
      "🇷": 5588,
      "🇸": 5589,
      "🇹": 5590,
      "🇺": 5591,
      "🌈": 5592,
      "🌊": 5593,
      "🌍": 5594,
      "🌎": 5595,
      "🌐": 5596,
      "🌞": 5597,
      "🌟": 5598,
      "🌧": 5599,
      "🌨": 5600,
      "🌴": 5601,
      "🌹": 5602,
      "🌻": 5603,
      "🍁": 5604,
      "🍅": 5605,
      "🍉": 5606,
      "🍑": 5607,
      "🍕": 5608,
      "🍖": 5609,
      "🍗": 5610,
      "🍟": 5611,
      "🍤": 5612,
      "🍳": 5613,
      "🍴": 5614,
      "🍺": 5615,
      "🍻": 5616,
      "🎁": 5617,
      "🎃": 5618,
      "🎄": 5619,
      "🎅": 5620,
      "🎈": 5621,
      "🎉": 5622,
      "🎊": 5623,
      "🎤": 5624,
      "🎥": 5625,
      "🎬": 5626,
      "🎶": 5627,
      "🎷": 5628,
      "🎺": 5629,
      "🏀": 5630,
      "🏁": 5631,
      "🏃": 5632,
      "🏆": 5633,
      "🏈": 5634,
      "🏊": 5635,
      "🏌": 5636,
      "🏍": 5637,
      "🏏": 5638,
      "🏖": 5639,
      "🏫": 5640,
      "🏳": 5641,
      "🏻": 5642,
      "🏼": 5643,
      "🏽": 5644,
      "🏾": 5645,
      "🏿": 5646,
      "🐐": 5647,
      "🐒": 5648,
      "🐕": 5649,
      "🐘": 5650,
      "🐙": 5651,
      "🐝": 5652,
      "🐧": 5653,
      "🐱": 5654,
      "🐳": 5655,
      "🐴": 5656,
      "🐶": 5657,
      "🐸": 5658,
      "🐺": 5659,
      "🐻": 5660,
      "🐼": 5661,
      "👀": 5662,
      "👇": 5663,
      "👈": 5664,
      "👉": 5665,
      "👊": 5666,
      "👋": 5667,
      "👌": 5668,
      "👍": 5669,
      "👎": 5670,
      "👏": 5671,
      "👑": 5672,
      "👓": 5673,
      "👟": 5674,
      "👨": 5675,
      "👩": 5676,
      "👫": 5677,
      "👬": 5678,
      "👮": 5679,
      "👯": 5680,
      "👲": 5681,
      "👳": 5682,
      "👶": 5683,
      "👻": 5684,
      "👽": 5685,
      "👾": 5686,
      "💀": 5687,
      "💁": 5688,
      "💃": 5689,
      "💄": 5690,
      "💅": 5691,
      "💆": 5692,
      "💉": 5693,
      "💋": 5694,
      "💌": 5695,
      "💍": 5696,
      "💔": 5697,
      "💖": 5698,
      "💙": 5699,
      "💚": 5700,
      "💛": 5701,
      "💜": 5702,
      "💡": 5703,
      "💥": 5704,
      "💩": 5705,
      "💪": 5706,
      "💯": 5707,
      "💰": 5708,
      "💵": 5709,
      "💻": 5710,
      "💾": 5711,
      "📃": 5712,
      "📊": 5713,
      "📍": 5714,
      "📏": 5715,
      "📓": 5716,
      "📖": 5717,
      "📝": 5718,
      "📣": 5719,
      "📱": 5720,
      "📷": 5721,
      "📸": 5722,
      "📼": 5723,
      "📽": 5724,
      "🔃": 5725,
      "🔊": 5726,
      "🔍": 5727,
      "🔎": 5728,
      "🔑": 5729,
      "🔓": 5730,
      "🔥": 5731,
      "🔫": 5732,
      "🔬": 5733,
      "🔮": 5734,
      "🔴": 5735,
      "🔵": 5736,
      "🔹": 5737,
      "🔺": 5738,
      "🔽": 5739,
      "🕇": 5740,
      "🕊": 5741,
      "🕴": 5742,
      "🕺": 5743,
      "🖖": 5744,
      "🖤": 5745,
      "🗽": 5746,
      "😀": 5747,
      "😁": 5748,
      "😂": 5749,
      "😃": 5750,
      "😄": 5751,
      "😅": 5752,
      "😆": 5753,
      "😇": 5754,
      "😈": 5755,
      "😉": 5756,
      "😊": 5757,
      "😌": 5758,
      "😍": 5759,
      "😎": 5760,
      "😏": 5761,
      "😐": 5762,
      "😑": 5763,
      "😒": 5764,
      "😔": 5765,
      "😕": 5766,
      "😖": 5767,
      "😘": 5768,
      "😛": 5769,
      "😜": 5770,
      "😟": 5771,
      "😡": 5772,
      "😢": 5773,
      "😣": 5774,
      "😤": 5775,
      "😥": 5776,
      "😦": 5777,
      "😩": 5778,
      "😪": 5779,
      "😬": 5780,
      "😭": 5781,
      "😮": 5782,
      "😯": 5783,
      "😱": 5784,
      "😲": 5785,
      "😳": 5786,
      "😵": 5787,
      "😷": 5788,
      "😸": 5789,
      "😹": 5790,
      "😺": 5791,
      "😻": 5792,
      "😼": 5793,
      "😽": 5794,
      "😾": 5795,
      "😿": 5796,
      "🙀": 5797,
      "🙁": 5798,
      "🙂": 5799,
      "🙃": 5800,
      "🙄": 5801,
      "🙇": 5802,
      "🙈": 5803,
      "🙉": 5804,
      "🙊": 5805,
      "🙋": 5806,
      "🙌": 5807,
      "🙏": 5808,
      "🙰": 5809,
      "🙱": 5810,
      "🙲": 5811,
      "🙳": 5812,
      "🙴": 5813,
      "🙵": 5814,
      "🚀": 5815,
      "🚂": 5816,
      "🚃": 5817,
      "🚗": 5818,
      "🚝": 5819,
      "🚨": 5820,
      "🚴": 5821,
      "🛀": 5822,
      "🛁": 5823,
      "🛳": 5824,
      "🤓": 5825,
      "🤔": 5826,
      "🤖": 5827,
      "🤗": 5828,
      "🤘": 5829,
      "🤙": 5830,
      "🤢": 5831,
      "🤦": 5832,
      "🤫": 5833,
      "🤷": 5834,
      "🥁": 5835,
      "🥔": 5836,
      "🥖": 5837,
      "🥗": 5838,
      "🥛": 5839,
      "🥫": 5840,
      "🥶": 5841,
      "🦁": 5842,
      "🦆": 5843,
      "🦖": 5844,
      "🧐": 5845,
      "𥢂": 5846,
      "𥢃": 5847,
      "𥢄": 5848,
      "𥢈": 5849,
      "𥢊": 5850,
      "𥢍": 5851,
      "𥢎": 5852,
      "𥢏": 5853,
      "𥤐": 5854,
      "𥤚": 5855,
      "𥤟": 5856,
      "𥤦": 5857,
      "𥤪": 5858,
      "𥤫": 5859,
      "𥤯": 5860,
      "󾌵": 5861,
      "th": 5862,
      "in": 5863,
      "er": 5864,
      "an": 5865,
      "the": 5866,
      "on": 5867,
      "re": 5868,
      "at": 5869,
      "en": 5870,
      "or": 5871,
      "st": 5872,
      "ed": 5873,
      "al": 5874,
      "ou": 5875,
      "ing": 5876,
      "to": 5877,
      "is": 5878,
      "ar": 5879,
      "it": 5880,
      "es": 5881,
      "of": 5882,
      "and": 5883,
      "as": 5884,
      "ic": 5885,
      "le": 5886,
      "ion": 5887,
      "om": 5888,
      "he": 5889,
      "ent": 5890,
      "se": 5891,
      "il": 5892,
      "ac": 5893,
      "be": 5894,
      "ve": 5895,
      "ly": 5896,
      "id": 5897,
      "ro": 5898,
      "ad": 5899,
      "for": 5900,
      "am": 5901,
      "that": 5902,
      "ch": 5903,
      "ow": 5904,
      "ay": 5905,
      "wh": 5906,
      "im": 5907,
      "ol": 5908,
      "ig": 5909,
      "ver": 5910,
      "ot": 5911,
      "ut": 5912,
      "un": 5913,
      "et": 5914,
      "ith": 5915,
      "ur": 5916,
      "ir": 5917,
      "de": 5918,
      "ce": 5919,
      "ation": 5920,
      "ct": 5921,
      "are": 5922,
      "ab": 5923,
      "ag": 5924,
      "ter": 5925,
      "con": 5926,
      "The": 5927,
      "with": 5928,
      "us": 5929,
      "li": 5930,
      "ers": 5931,
      "ere": 5932,
      "op": 5933,
      "el": 5934,
      "com": 5935,
      "mo": 5936,
      "ha": 5937,
      "ill": 5938,
      "su": 5939,
      "ne": 5940,
      "you": 5941,
      "was": 5942,
      "ke": 5943,
      "ld": 5944,
      "all": 5945,
      "pe": 5946,
      "out": 5947,
      "pl": 5948,
      "pro": 5949,
      "ri": 5950,
      "ate": 5951,
      "ul": 5952,
      "res": 5953,
      "we": 5954,
      "em": 5955,
      "ex": 5956,
      "ap": 5957,
      "fr": 5958,
      "lo": 5959,
      "igh": 5960,
      "ain": 5961,
      "oun": 5962,
      "ment": 5963,
      "tr": 5964,
      "sh": 5965,
      "one": 5966,
      "so": 5967,
      "if": 5968,
      "by": 5969,
      "his": 5970,
      "our": 5971,
      "ist": 5972,
      "not": 5973,
      "art": 5974,
      "ess": 5975,
      "ant": 5976,
      "have": 5977,
      "ity": 5978,
      "ould": 5979,
      "po": 5980,
      "ther": 5981,
      "te": 5982,
      "from": 5983,
      "um": 5984,
      "this": 5985,
      "sa": 5986,
      "qu": 5987,
      "ive": 5988,
      "act": 5989,
      "ight": 5990,
      "ust": 5991,
      "go": 5992,
      "per": 5993,
      "ort": 5994,
      "wor": 5995,
      "ast": 5996,
      "end": 5997,
      "ge": 5998,
      "od": 5999,
      "has": 6000,
      "fe": 6001,
      "ack": 6002,
      "up": 6003,
      "20": 6004,
      "do": 6005,
      "ies": 6006,
      "ally": 6007,
      "but": 6008,
      "ome": 6009,
      "ear": 6010,
      "gh": 6011,
      "In": 6012,
      "ard": 6013,
      "cl": 6014,
      "any": 6015,
      "co": 6016,
      "me": 6017,
      "ak": 6018,
      "can": 6019,
      "they": 6020,
      "will": 6021,
      "au": 6022,
      "pr": 6023,
      "said": 6024,
      "ci": 6025,
      "ind": 6026,
      "gr": 6027,
      "ans": 6028,
      "ough": 6029,
      "who": 6030,
      "port": 6031,
      "ich": 6032,
      "ame": 6033,
      "Th": 6034,
      "der": 6035,
      "iv": 6036,
      "ev": 6037,
      "ide": 6038,
      "their": 6039,
      "ok": 6040,
      "now": 6041,
      "more": 6042,
      "ice": 6043,
      "af": 6044,
      "tim": 6045,
      "00": 6046,
      "ong": 6047,
      "est": 6048,
      "age": 6049,
      "ound": 6050,
      "ous": 6051,
      "ure": 6052,
      "ine": 6053,
      "bl": 6054,
      "ud": 6055,
      "ore": 6056,
      "ions": 6057,
      "about": 6058,
      "bo": 6059,
      "some": 6060,
      "ber": 6061,
      "no": 6062,
      "had": 6063,
      "off": 6064,
      "ated": 6065,
      "ell": 6066,
      "It": 6067,
      "its": 6068,
      "day": 6069,
      "ck": 6070,
      "year": 6071,
      "ire": 6072,
      "ie": 6073,
      "cre": 6074,
      "int": 6075,
      "which": 6076,
      "were": 6077,
      "ep": 6078,
      "would": 6079,
      "able": 6080,
      "thing": 6081,
      "way": 6082,
      "cr": 6083,
      "ia": 6084,
      "ake": 6085,
      "like": 6086,
      "ass": 6087,
      "man": 6088,
      "comp": 6089,
      "ence": 6090,
      "very": 6091,
      "her": 6092,
      "ll": 6093,
      "own": 6094,
      "other": 6095,
      "get": 6096,
      "been": 6097,
      "iz": 6098,
      "av": 6099,
      "work": 6100,
      "ary": 6101,
      "ign": 6102,
      "ach": 6103,
      "An": 6104,
      "pre": 6105,
      "over": 6106,
      "new": 6107,
      "ace": 6108,
      "ip": 6109,
      "ite": 6110,
      "201": 6111,
      "sp": 6112,
      "str": 6113,
      "cont": 6114,
      "St": 6115,
      "part": 6116,
      "Wh": 6117,
      "form": 6118,
      "dis": 6119,
      "ue": 6120,
      "ail": 6121,
      "pres": 6122,
      "ile": 6123,
      "my": 6124,
      "than": 6125,
      "aw": 6126,
      "there": 6127,
      "ople": 6128,
      "pos": 6129,
      "ish": 6130,
      "ts": 6131,
      "cent": 6132,
      "ser": 6133,
      "time": 6134,
      "ical": 6135,
      "what": 6136,
      "ial": 6137,
      "also": 6138,
      "them": 6139,
      "just": 6140,
      "Ch": 6141,
      "when": 6142,
      "your": 6143,
      "play": 6144,
      "ef": 6145,
      "br": 6146,
      "people": 6147,
      "fir": 6148,
      "He": 6149,
      "ble": 6150,
      "19": 6151,
      "att": 6152,
      "cor": 6153,
      "ick": 6154,
      "tw": 6155,
      "fer": 6156,
      "inter": 6157,
      "pol": 6158,
      "ations": 6159,
      "pt": 6160,
      "du": 6161,
      "ens": 6162,
      "say": 6163,
      "low": 6164,
      "ance": 6165,
      "ction": 6166,
      "ren": 6167,
      "We": 6168,
      "ree": 6169,
      "ase": 6170,
      "into": 6171,
      "mon": 6172,
      "ang": 6173,
      "ink": 6174,
      ".”": 6175,
      "mer": 6176,
      "ty": 6177,
      "old": 6178,
      "vel": 6179,
      "ark": 6180,
      "ory": 6181,
      "most": 6182,
      "ob": 6183,
      "ian": 6184,
      "coun": 6185,
      "ident": 6186,
      "back": 6187,
      "how": 6188,
      "ition": 6189,
      "cau": 6190,
      "ph": 6191,
      "know": 6192,
      "she": 6193,
      "ates": 6194,
      "spe": 6195,
      "ade": 6196,
      "ors": 6197,
      "ra": 6198,
      "amp": 6199,
      "after": 6200,
      "og": 6201,
      "ubl": 6202,
      "cess": 6203,
      "This": 6204,
      "cause": 6205,
      "first": 6206,
      "ose": 6207,
      "him": 6208,
      "ful": 6209,
      "could": 6210,
      "vers": 6211,
      "pp": 6212,
      "min": 6213,
      "But": 6214,
      ",”": 6215,
      "cur": 6216,
      "sel": 6217,
      "only": 6218,
      "fore": 6219,
      "two": 6220,
      "ning": 6221,
      "row": 6222,
      "ild": 6223,
      "enc": 6224,
      "ting": 6225,
      "ater": 6226,
      "Un": 6227,
      "bet": 6228,
      "ry": 6229,
      "ious": 6230,
      "med": 6231,
      "And": 6232,
      ".\"": 6233,
      "sy": 6234,
      "des": 6235,
      "comm": 6236,
      "under": 6237,
      "don": 6238,
      "ew": 6239,
      "fin": 6240,
      "where": 6241,
      "did": 6242,
      "see": 6243,
      "add": 6244,
      "bu": 6245,
      "oc": 6246,
      "ict": 6247,
      "again": 6248,
      "right": 6249,
      "ents": 6250,
      "even": 6251,
      "read": 6252,
      "gu": 6253,
      "os": 6254,
      "want": 6255,
      "use": 6256,
      "reg": 6257,
      "come": 6258,
      "ult": 6259,
      "because": 6260,
      "ason": 6261,
      "Tr": 6262,
      "ating": 6263,
      "si": 6264,
      "years": 6265,
      "ual": 6266,
      "ublic": 6267,
      "As": 6268,
      "need": 6269,
      "call": 6270,
      "rough": 6271,
      "fl": 6272,
      "ving": 6273,
      "--": 6274,
      "ect": 6275,
      "ress": 6276,
      "ved": 6277,
      "many": 6278,
      "dr": 6279,
      "reat": 6280,
      "ever": 6281,
      "col": 6282,
      ",\"": 6283,
      "10": 6284,
      "down": 6285,
      "every": 6286,
      "used": 6287,
      "make": 6288,
      "look": 6289,
      "then": 6290,
      "ener": 6291,
      "urn": 6292,
      "sc": 6293,
      "land": 6294,
      "try": 6295,
      "cial": 6296,
      "these": 6297,
      "incl": 6298,
      "ins": 6299,
      "air": 6300,
      "uch": 6301,
      "dif": 6302,
      "iss": 6303,
      "ho": 6304,
      "being": 6305,
      "cord": 6306,
      "cer": 6307,
      "think": 6308,
      "ational": 6309,
      "Re": 6310,
      "leg": 6311,
      "hel": 6312,
      "itt": 6313,
      "though": 6314,
      "ments": 6315,
      "may": 6316,
      "vie": 6317,
      "ath": 6318,
      "ank": 6319,
      "rel": 6320,
      "lect": 6321,
      "ek": 6322,
      "..": 6323,
      "arch": 6324,
      "well": 6325,
      "point": 6326,
      "ise": 6327,
      "ject": 6328,
      "200": 6329,
      "long": 6330,
      "oup": 6331,
      "self": 6332,
      "through": 6333,
      "De": 6334,
      "state": 6335,
      "ced": 6336,
      "set": 6337,
      "ased": 6338,
      "last": 6339,
      "ative": 6340,
      "Amer": 6341,
      "red": 6342,
      "less": 6343,
      "cho": 6344,
      "Americ": 6345,
      "should": 6346,
      "ited": 6347,
      "New": 6348,
      "ump": 6349,
      "aking": 6350,
      "pect": 6351,
      ").": 6352,
      "ann": 6353,
      "those": 6354,
      "show": 6355,
      "much": 6356,
      "high": 6357,
      "let": 6358,
      "ash": 6359,
      "cle": 6360,
      "ug": 6361,
      "ities": 6362,
      "rem": 6363,
      "ven": 6364,
      "You": 6365,
      "ics": 6366,
      "imp": 6367,
      "gover": 6368,
      "uring": 6369,
      "atch": 6370,
      "tain": 6371,
      "If": 6372,
      "going": 6373,
      "oy": 6374,
      "does": 6375,
      "For": 6376,
      "govern": 6377,
      "fun": 6378,
      "di": 6379,
      "car": 6380,
      "tal": 6381,
      "before": 6382,
      "Al": 6383,
      "stand": 6384,
      "ask": 6385,
      "wr": 6386,
      "start": 6387,
      "vis": 6388,
      "put": 6389,
      "pers": 6390,
      "als": 6391,
      "fect": 6392,
      "ces": 6393,
      "ma": 6394,
      "report": 6395,
      "ince": 6396,
      "while": 6397,
      "ves": 6398,
      "),": 6399,
      "made": 6400,
      "team": 6401,
      "sur": 6402,
      "led": 6403,
      "such": 6404,
      "cond": 6405,
      "lar": 6406,
      "view": 6407,
      "ss": 6408,
      "So": 6409,
      "world": 6410,
      "ange": 6411,
      "game": 6412,
      "pon": 6413,
      "dec": 6414,
      "ms": 6415,
      "turn": 6416,
      "lead": 6417,
      "ific": 6418,
      "sup": 6419,
      "ily": 6420,
      "produ": 6421,
      "cons": 6422,
      "Con": 6423,
      "tri": 6424,
      "ings": 6425,
      "good": 6426,
      "stem": 6427,
      "sub": 6428,
      "They": 6429,
      "che": 6430,
      "stud": 6431,
      "ular": 6432,
      "char": 6433,
      "ys": 6434,
      "week": 6435,
      "ually": 6436,
      "les": 6437,
      "ility": 6438,
      "ward": 6439,
      "law": 6440,
      "includ": 6441,
      "gan": 6442,
      "ton": 6443,
      "against": 6444,
      "Fr": 6445,
      "There": 6446,
      "app": 6447,
      "still": 6448,
      "ood": 6449,
      "ext": 6450,
      "fact": 6451,
      "here": 6452,
      "run": 6453,
      "help": 6454,
      "test": 6455,
      "Ar": 6456,
      "take": 6457,
      "line": 6458,
      "ner": 6459,
      "Se": 6460,
      "sm": 6461,
      "real": 6462,
      "ower": 6463,
      "ween": 6464,
      "Com": 6465,
      "differ": 6466,
      "says": 6467,
      "illion": 6468,
      "head": 6469,
      "offic": 6470,
      "olog": 6471,
      "num": 6472,
      "cut": 6473,
      "la": 6474,
      "quest": 6475,
      "ism": 6476,
      "government": 6477,
      "000": 6478,
      "That": 6479,
      "clo": 6480,
      "cour": 6481,
      "ub": 6482,
      "same": 6483,
      "sign": 6484,
      "fi": 6485,
      "between": 6486,
      "hand": 6487,
      "val": 6488,
      "ollow": 6489,
      "serv": 6490,
      "No": 6491,
      "ists": 6492,
      "cap": 6493,
      "Is": 6494,
      "war": 6495,
      "system": 6496,
      "trans": 6497,
      "eng": 6498,
      "around": 6499,
      ".[": 6500,
      "son": 6501,
      "three": 6502,
      "ames": 6503,
      "person": 6504,
      "ax": 6505,
      "Le": 6506,
      "velop": 6507,
      "Br": 6508,
      "book": 6509,
      "fam": 6510,
      "ds": 6511,
      "inst": 6512,
      "side": 6513,
      "io": 6514,
      "mem": 6515,
      "On": 6516,
      "ters": 6517,
      "public": 6518,
      "group": 6519,
      "ten": 6520,
      "ures": 6521,
      "support": 6522,
      "uss": 6523,
      "vest": 6524,
      "ouse": 6525,
      "ff": 6526,
      "Trump": 6527,
      "got": 6528,
      "prov": 6529,
      "found": 6530,
      "really": 6531,
      "vi": 6532,
      "wom": 6533,
      "sure": 6534,
      "ave": 6535,
      "happ": 6536,
      "ways": 6537,
      "mark": 6538,
      "press": 6539,
      "pri": 6540,
      "sul": 6541,
      "peri": 6542,
      "lot": 6543,
      "det": 6544,
      "month": 6545,
      "issu": 6546,
      "fil": 6547,
      "12": 6548,
      "ost": 6549,
      "vol": 6550,
      "both": 6551,
      "15": 6552,
      "US": 6553,
      "gest": 6554,
      "irect": 6555,
      "find": 6556,
      "power": 6557,
      "def": 6558,
      "life": 6559,
      "ale": 6560,
      "Jo": 6561,
      "big": 6562,
      "ense": 6563,
      "aren": 6564,
      "cept": 6565,
      "alth": 6566,
      "develop": 6567,
      "miss": 6568,
      "ages": 6569,
      "par": 6570,
      "ices": 6571,
      "polit": 6572,
      "ship": 6573,
      "top": 6574,
      "cal": 6575,
      "during": 6576,
      "too": 6577,
      "ied": 6578,
      "respon": 6579,
      "told": 6580,
      "gener": 6581,
      "ng": 6582,
      "How": 6583,
      "xt": 6584,
      "18": 6585,
      "beli": 6586,
      "follow": 6587,
      "ft": 6588,
      "Cl": 6589,
      "net": 6590,
      "bre": 6591,
      "stru": 6592,
      "appe": 6593,
      "ically": 6594,
      "came": 6595,
      "season": 6596,
      "ared": 6597,
      "ines": 6598,
      "incre": 6599,
      "place": 6600,
      "contin": 6601,
      "since": 6602,
      "az": 6603,
      "list": 6604,
      "Be": 6605,
      "light": 6606,
      "few": 6607,
      "expl": 6608,
      "pass": 6609,
      "rest": 6610,
      "national": 6611,
      "ider": 6612,
      "aim": 6613,
      "bus": 6614,
      "cording": 6615,
      "Ad": 6616,
      "bers": 6617,
      "using": 6618,
      "ars": 6619,
      "akes": 6620,
      "allow": 6621,
      "blo": 6622,
      "kill": 6623,
      "vot": 6624,
      "ah": 6625,
      "far": 6626,
      "chool": 6627,
      "11": 6628,
      "ime": 6629,
      "something": 6630,
      "commun": 6631,
      "unt": 6632,
      "ris": 6633,
      "At": 6634,
      "sol": 6635,
      "ution": 6636,
      "gy": 6637,
      "giv": 6638,
      "care": 6639,
      "invest": 6640,
      "vent": 6641,
      "ues": 6642,
      "order": 6643,
      "different": 6644,
      "ata": 6645,
      "rele": 6646,
      "30": 6647,
      "oot": 6648,
      "clear": 6649,
      "open": 6650,
      "another": 6651,
      "ized": 6652,
      "ready": 6653,
      "things": 6654,
      "Sh": 6655,
      "bit": 6656,
      "ody": 6657,
      "post": 6658,
      "each": 6659,
      "camp": 6660,
      "cover": 6661,
      "When": 6662,
      "ivers": 6663,
      "called": 6664,
      "never": 6665,
      "rent": 6666,
      "second": 6667,
      "gram": 6668,
      "home": 6669,
      "possi": 6670,
      "might": 6671,
      "child": 6672,
      "What": 6673,
      "search": 6674,
      "best": 6675,
      "ush": 6676,
      "ement": 6677,
      "ted": 6678,
      "ants": 6679,
      "iness": 6680,
      "contro": 6681,
      "atter": 6682,
      "ize": 6683,
      "next": 6684,
      "ross": 6685,
      "requ": 6686,
      "por": 6687,
      "ness": 6688,
      "build": 6689,
      "dist": 6690,
      "ature": 6691,
      "Pro": 6692,
      "hum": 6693,
      "pay": 6694,
      "including": 6695,
      "feel": 6696,
      "direct": 6697,
      "move": 6698,
      "change": 6699,
      "ittle": 6700,
      "sing": 6701,
      "seem": 6702,
      "percent": 6703,
      "She": 6704,
      "ger": 6705,
      "ital": 6706,
      "inform": 6707,
      "pop": 6708,
      "plan": 6709,
      "appro": 6710,
      "interest": 6711,
      "oper": 6712,
      "lim": 6713,
      "conom": 6714,
      "resul": 6715,
      "ired": 6716,
      "level": 6717,
      "import": 6718,
      "resident": 6719,
      "number": 6720,
      "ps": 6721,
      "oth": 6722,
      "hard": 6723,
      "won": 6724,
      "case": 6725,
      "without": 6726,
      "million": 6727,
      "great": 6728,
      "50": 6729,
      "present": 6730,
      "soci": 6731,
      "king": 6732,
      "ball": 6733,
      "bro": 6734,
      "ele": 6735,
      "ama": 6736,
      "proble": 6737,
      "four": 6738,
      "men": 6739,
      "cy": 6740,
      "ately": 6741,
      "country": 6742,
      "tech": 6743,
      "mar": 6744,
      "ets": 6745,
      "sum": 6746,
      "American": 6747,
      "Rep": 6748,
      "oney": 6749,
      "riend": 6750,
      "dri": 6751,
      "ier": 6752,
      "sit": 6753,
      "__": 6754,
      "prom": 6755,
      "ably": 6756,
      "uro": 6757,
      "partic": 6758,
      "ished": 6759,
      "better": 6760,
      "recent": 6761,
      "little": 6762,
      "win": 6763,
      "keep": 6764,
      "mil": 6765,
      "cri": 6766,
      "ern": 6767,
      "ling": 6768,
      "gre": 6769,
      "Mar": 6770,
      "main": 6771,
      "ons": 6772,
      "16": 6773,
      "class": 6774,
      "eld": 6775,
      "prof": 6776,
      "iting": 6777,
      "tra": 6778,
      "To": 6779,
      "attack": 6780,
      "ral": 6781,
      "left": 6782,
      "ency": 6783,
      "dep": 6784,
      "fic": 6785,
      "Ob": 6786,
      "ety": 6787,
      "uck": 6788,
      "grow": 6789,
      "jor": 6790,
      "hist": 6791,
      "ese": 6792,
      "Af": 6793,
      "den": 6794,
      "organ": 6795,
      "police": 6796,
      "chang": 6797,
      "claim": 6798,
      "didn": 6799,
      "14": 6800,
      "econom": 6801,
      "effect": 6802,
      "ina": 6803,
      "friend": 6804,
      "inal": 6805,
      "Pr": 6806,
      "ord": 6807,
      "free": 6808,
      "nor": 6809,
      "school": 6810,
      "wit": 6811,
      "ont": 6812,
      "13": 6813,
      "del": 6814,
      "vious": 6815,
      "data": 6816,
      "program": 6817,
      "met": 6818,
      "body": 6819,
      "spec": 6820,
      "based": 6821,
      "near": 6822,
      "ather": 6823,
      "key": 6824,
      "ned": 6825,
      "process": 6826,
      "thor": 6827,
      "ork": 6828,
      "ret": 6829,
      "reason": 6830,
      "atic": 6831,
      "expect": 6832,
      "ional": 6833,
      "ability": 6834,
      "company": 6835,
      "pur": 6836,
      "comple": 6837,
      "bal": 6838,
      "eas": 6839,
      "Can": 6840,
      "night": 6841,
      "current": 6842,
      "Nor": 6843,
      "var": 6844,
      "minist": 6845,
      "rist": 6846,
      "ator": 6847,
      "17": 6848,
      "tell": 6849,
      "president": 6850,
      "ending": 6851,
      "coming": 6852,
      "away": 6853,
      "hold": 6854,
      "ploy": 6855,
      "tem": 6856,
      "later": 6857,
      "ided": 6858,
      "One": 6859,
      "ration": 6860,
      "design": 6861,
      "small": 6862,
      "United": 6863,
      "official": 6864,
      "ca": 6865,
      "Co": 6866,
      "ref": 6867,
      "face": 6868,
      "ats": 6869,
      "aph": 6870,
      "women": 6871,
      "action": 6872,
      "Ro": 6873,
      "ended": 6874,
      "already": 6875,
      "city": 6876,
      "rece": 6877,
      "hn": 6878,
      "story": 6879,
      "Bl": 6880,
      "money": 6881,
      "imes": 6882,
      "experi": 6883,
      "health": 6884,
      "ude": 6885,
      "ks": 6886,
      "All": 6887,
      "vir": 6888,
      "techn": 6889,
      "business": 6890,
      "information": 6891,
      "why": 6892,
      "simp": 6893,
      "making": 6894,
      "always": 6895,
      "sever": 6896,
      "major": 6897,
      "ives": 6898,
      "und": 6899,
      "enter": 6900,
      "Gr": 6901,
      "edit": 6902,
      "ards": 6903,
      "hop": 6904,
      "ones": 6905,
      "ised": 6906,
      "mocr": 6907,
      "tax": 6908,
      "consider": 6909,
      "ric": 6910,
      "adv": 6911,
      "bed": 6912,
      "199": 6913,
      "Or": 6914,
      "Mr": 6915,
      "comes": 6916,
      "kind": 6917,
      "elect": 6918,
      "aign": 6919,
      "project": 6920,
      "cost": 6921,
      "fort": 6922,
      "days": 6923,
      "hal": 6924,
      "ute": 6925,
      "ik": 6926,
      "bor": 6927,
      "past": 6928,
      "whe": 6929,
      "job": 6930,
      "Col": 6931,
      "name": 6932,
      "ology": 6933,
      "ago": 6934,
      "must": 6935,
      "ged": 6936,
      "important": 6937,
      "cu": 6938,
      "ample": 6939,
      "large": 6940,
      "known": 6941,
      "happen": 6942,
      "Pl": 6943,
      "25": 6944,
      "suc": 6945,
      "plic": 6946,
      "qual": 6947,
      "Li": 6948,
      "ains": 6949,
      "unch": 6950,
      "ural": 6951,
      "fac": 6952,
      "Go": 6953,
      "working": 6954,
      "John": 6955,
      "exp": 6956,
      "late": 6957,
      "ey": 6958,
      "doesn": 6959,
      "cas": 6960,
      "May": 6961,
      "possible": 6962,
      "iversity": 6963,
      "outh": 6964,
      "...": 6965,
      "least": 6966,
      "polic": 6967,
      "ror": 6968,
      "gin": 6969,
      "news": 6970,
      "position": 6971,
      "campaign": 6972,
      "mean": 6973,
      "family": 6974,
      "que": 6975,
      "likely": 6976,
      "human": 6977,
      "Republic": 6978,
      "eder": 6979,
      "acy": 6980,
      "sk": 6981,
      "With": 6982,
      "ision": 6983,
      "IS": 6984,
      "ained": 6985,
      "ides": 6986,
      "enough": 6987,
      "site": 6988,
      "record": 6989,
      "vide": 6990,
      "Car": 6991,
      "until": 6992,
      "ury": 6993,
      "water": 6994,
      "Euro": 6995,
      "deal": 6996,
      "former": 6997,
      "Ex": 6998,
      "ney": 6999,
      "curity": 7000,
      "political": 7001,
      "Sy": 7002,
      "ribut": 7003,
      "ences": 7004,
      "plac": 7005,
      "certain": 7006,
      "ib": 7007,
      "ians": 7008,
      "lear": 7009,
      "ple": 7010,
      "ix": 7011,
      "posed": 7012,
      "nam": 7013,
      "ground": 7014,
      "ste": 7015,
      "actually": 7016,
      "took": 7017,
      "room": 7018,
      "research": 7019,
      "prote": 7020,
      "often": 7021,
      "Mc": 7022,
      "sim": 7023,
      "sci": 7024,
      "ird": 7025,
      "tract": 7026,
      "Im": 7027,
      "full": 7028,
      "times": 7029,
      "become": 7030,
      "ley": 7031,
      "jo": 7032,
      "give": 7033,
      "gen": 7034,
      "President": 7035,
      "stop": 7036,
      "pot": 7037,
      "ster": 7038,
      "ined": 7039,
      "tar": 7040,
      "market": 7041,
      "Don": 7042,
      "Ind": 7043,
      "ls": 7044,
      "hour": 7045,
      "return": 7046,
      "Ac": 7047,
      "bar": 7048,
      "Man": 7049,
      "doing": 7050,
      "stre": 7051,
      "nal": 7052,
      "non": 7053,
      "went": 7054,
      "aring": 7055,
      "Ph": 7056,
      "ru": 7057,
      "games": 7058,
      "After": 7059,
      "according": 7060,
      "early": 7061,
      "aid": 7062,
      "social": 7063,
      "Mo": 7064,
      "seen": 7065,
      "aining": 7066,
      "having": 7067,
      "media": 7068,
      "!!": 7069,
      "ben": 7070,
      "sex": 7071,
      "charac": 7072,
      "mor": 7073,
      "Russ": 7074,
      "sug": 7075,
      "Pol": 7076,
      "product": 7077,
      "une": 7078,
      "Ste": 7079,
      "bas": 7080,
      "Inter": 7081,
      "RE": 7082,
      "crit": 7083,
      "event": 7084,
      "five": 7085,
      "Obama": 7086,
      "eve": 7087,
      "Mon": 7088,
      "course": 7089,
      "struct": 7090,
      "24": 7091,
      "Europe": 7092,
      "ization": 7093,
      "York": 7094,
      "author": 7095,
      "mber": 7096,
      "ither": 7097,
      "force": 7098,
      "ying": 7099,
      "employ": 7100,
      "ought": 7101,
      "graph": 7102,
      "question": 7103,
      "uture": 7104,
      "AT": 7105,
      "mid": 7106,
      "today": 7107,
      "idence": 7108,
      "several": 7109,
      "count": 7110,
      "tion": 7111,
      "stit": 7112,
      "wer": 7113,
      "icle": 7114,
      "success": 7115,
      "ran": 7116,
      "aken": 7117,
      "fight": 7118,
      "members": 7119,
      "meet": 7120,
      "State": 7121,
      "ories": 7122,
      "half": 7123,
      "Sp": 7124,
      "children": 7125,
      "Not": 7126,
      "whether": 7127,
      "activ": 7128,
      "uary": 7129,
      "milit": 7130,
      "players": 7131,
      "ensive": 7132,
      "sent": 7133,
      "aged": 7134,
      "tt": 7135,
      "asked": 7136,
      "vil": 7137,
      "short": 7138,
      "example": 7139,
      "priv": 7140,
      "once": 7141,
      "along": 7142,
      "close": 7143,
      "fund": 7144,
      "local": 7145,
      "invol": 7146,
      "States": 7147,
      "ential": 7148,
      "done": 7149,
      "watch": 7150,
      "cast": 7151,
      "understand": 7152,
      "trad": 7153,
      "avail": 7154,
      "offer": 7155,
      "viol": 7156,
      "ali": 7157,
      "ped": 7158,
      "West": 7159,
      "100": 7160,
      "Coun": 7161,
      "within": 7162,
      "However": 7163,
      "University": 7164,
      "concer": 7165,
      "2016": 7166,
      "young": 7167,
      "mand": 7168,
      "months": 7169,
      "ron": 7170,
      "40": 7171,
      "house": 7172,
      "means": 7173,
      "thought": 7174,
      "aff": 7175,
      "orig": 7176,
      "pat": 7177,
      "ER": 7178,
      "My": 7179,
      "gress": 7180,
      "investig": 7181,
      "among": 7182,
      "given": 7183,
      "Wor": 7184,
      "fail": 7185,
      "fig": 7186,
      "mus": 7187,
      "sl": 7188,
      "issue": 7189,
      "web": 7190,
      "uc": 7191,
      "gl": 7192,
      "ified": 7193,
      "ilar": 7194,
      "ulation": 7195,
      "While": 7196,
      "gether": 7197,
      "ient": 7198,
      "sour": 7199,
      "problem": 7200,
      "ots": 7201,
      "ivid": 7202,
      "future": 7203,
      "Christ": 7204,
      "augh": 7205,
      "yet": 7206,
      "hy": 7207,
      "IN": 7208,
      "reach": 7209,
      "En": 7210,
      "video": 7211,
      "prob": 7212,
      "ague": 7213,
      "legal": 7214,
      "community": 7215,
      "ederal": 7216,
      "field": 7217,
      "strong": 7218,
      "Democr": 7219,
      "across": 7220,
      "step": 7221,
      "depend": 7222,
      "ison": 7223,
      "House": 7224,
      "Bo": 7225,
      "vert": 7226,
      "getting": 7227,
      "Sen": 7228,
      "acc": 7229,
      "suggest": 7230,
      "party": 7231,
      "Dr": 7232,
      "dro": 7233,
      "ane": 7234,
      "ns": 7235,
      "oto": 7236,
      "Min": 7237,
      "spo": 7238,
      "Do": 7239,
      "others": 7240,
      "reported": 7241,
      "makes": 7242,
      "announ": 7243,
      "2015": 7244,
      "ech": 7245,
      "bi": 7246,
      "itive": 7247,
      "wal": 7248,
      "descri": 7249,
      "ators": 7250,
      "gun": 7251,
      "ially": 7252,
      "inc": 7253,
      "mit": 7254,
      "death": 7255,
      "indust": 7256,
      "believe": 7257,
      "Ger": 7258,
      "together": 7259,
      "ium": 7260,
      "ister": 7261,
      "available": 7262,
      "//": 7263,
      "fall": 7264,
      "pret": 7265,
      "Some": 7266,
      "22": 7267,
      "love": 7268,
      "ible": 7269,
      "empt": 7270,
      "control": 7271,
      "ove": 7272,
      "ler": 7273,
      "60": 7274,
      "ony": 7275,
      "particular": 7276,
      "hind": 7277,
      "ising": 7278,
      "started": 7279,
      "looking": 7280,
      "ington": 7281,
      "series": 7282,
      "nes": 7283,
      "aster": 7284,
      "ived": 7285,
      "urther": 7286,
      "tow": 7287,
      "mom": 7288,
      "foot": 7289,
      "ured": 7290,
      "court": 7291,
      "Now": 7292,
      "iter": 7293,
      "America": 7294,
      "imm": 7295,
      "deb": 7296,
      "Canad": 7297,
      "front": 7298,
      "Mic": 7299,
      "ond": 7300,
      "foc": 7301,
      "har": 7302,
      "pract": 7303,
      "live": 7304,
      "complete": 7305,
      "disc": 7306,
      "selves": 7307,
      "access": 7308,
      "dev": 7309,
      "almost": 7310,
      "mind": 7311,
      "2014": 7312,
      "bur": 7313,
      "Ser": 7314,
      "tom": 7315,
      "rul": 7316,
      "cell": 7317,
      "kes": 7318,
      "Just": 7319,
      "history": 7320,
      "trying": 7321,
      "six": 7322,
      "AN": 7323,
      "bad": 7324,
      "ances": 7325,
      "mission": 7326,
      "ails": 7327,
      "proper": 7328,
      "----": 7329,
      "conne": 7330,
      "These": 7331,
      "film": 7332,
      "talk": 7333,
      "War": 7334,
      "hip": 7335,
      "uses": 7336,
      "wa": 7337,
      "Fe": 7338,
      "Ju": 7339,
      "mal": 7340,
      "following": 7341,
      "gn": 7342,
      "anal": 7343,
      "ww": 7344,
      "cop": 7345,
      "taken": 7346,
      "security": 7347,
      "80": 7348,
      "ination": 7349,
      "experience": 7350,
      "isn": 7351,
      "Har": 7352,
      "added": 7353,
      "Bar": 7354,
      "hit": 7355,
      "food": 7356,
      "compan": 7357,
      "block": 7358,
      "compet": 7359,
      "area": 7360,
      "idea": 7361,
      "round": 7362,
      "individ": 7363,
      ".,": 7364,
      "ustom": 7365,
      "itions": 7366,
      "loc": 7367,
      "aft": 7368,
      "Eng": 7369,
      "itional": 7370,
      "ald": 7371,
      "space": 7372,
      "player": 7373,
      "ON": 7374,
      "publ": 7375,
      "Sun": 7376,
      "anything": 7377,
      "fully": 7378,
      "black": 7379,
      "23": 7380,
      "Isra": 7381,
      "His": 7382,
      "Me": 7383,
      "North": 7384,
      "By": 7385,
      "dom": 7386,
      "fire": 7387,
      "Res": 7388,
      "Brit": 7389,
      "Gu": 7390,
      "supp": 7391,
      "wanted": 7392,
      "ock": 7393,
      "break": 7394,
      "cult": 7395,
      "saying": 7396,
      "Ge": 7397,
      "argu": 7398,
      "defin": 7399,
      "fav": 7400,
      "aper": 7401,
      "sty": 7402,
      "bill": 7403,
      "behind": 7404,
      "threat": 7405,
      "ene": 7406,
      "pick": 7407,
      "exist": 7408,
      "photo": 7409,
      "mess": 7410,
      "individual": 7411,
      "sof": 7412,
      "entire": 7413,
      "aver": 7414,
      "similar": 7415,
      "taking": 7416,
      "ams": 7417,
      "pen": 7418,
      "cially": 7419,
      "inton": 7420,
      "omet": 7421,
      "ecut": 7422,
      "cret": 7423,
      "rather": 7424,
      "cing": 7425,
      "either": 7426,
      "sal": 7427,
      "military": 7428,
      "bank": 7429,
      "reed": 7430,
      "ott": 7431,
      "Dav": 7432,
      "ference": 7433,
      "wide": 7434,
      "date": 7435,
      "road": 7436,
      "previous": 7437,
      "stri": 7438,
      "flu": 7439,
      "works": 7440,
      "policy": 7441,
      "21": 7442,
      "tries": 7443,
      "City": 7444,
      "board": 7445,
      "Dep": 7446,
      "uge": 7447,
      "special": 7448,
      "Ed": 7449,
      "bring": 7450,
      "single": 7451,
      "impro": 7452,
      "quick": 7453,
      "ior": 7454,
      "someone": 7455,
      "rad": 7456,
      "World": 7457,
      "discuss": 7458,
      "version": 7459,
      "mult": 7460,
      "National": 7461,
      "hom": 7462,
      "vo": 7463,
      "scre": 7464,
      "Part": 7465,
      "ids": 7466,
      "roll": 7467,
      "colle": 7468,
      "mass": 7469,
      "study": 7470,
      "woman": 7471,
      "ges": 7472,
      "ched": 7473,
      "2013": 7474,
      "paren": 7475,
      "glo": 7476,
      "lier": 7477,
      "Aust": 7478,
      "band": 7479,
      "check": 7480,
      "gets": 7481,
      "Med": 7482,
      "sen": 7483,
      "points": 7484,
      "nothing": 7485,
      "sus": 7486,
      "redu": 7487,
      "Clinton": 7488,
      "due": 7489,
      "Sc": 7490,
      "Wash": 7491,
      "dest": 7492,
      "dam": 7493,
      "probably": 7494,
      "imate": 7495,
      "else": 7496,
      "comb": 7497,
      "rights": 7498,
      "viron": 7499,
      "AR": 7500,
      "create": 7501,
      "Jan": 7502,
      "benef": 7503,
      "iday": 7504,
      "BC": 7505,
      "load": 7506,
      "protect": 7507,
      "result": 7508,
      "equ": 7509,
      "AS": 7510,
      "phone": 7511,
      "ull": 7512,
      "nat": 7513,
      "manag": 7514,
      "Fl": 7515,
      "wards": 7516,
      "ention": 7517,
      "amoun": 7518,
      "arr": 7519,
      "box": 7520,
      "issues": 7521,
      "uff": 7522,
      "Wil": 7523,
      "ded": 7524,
      "2017": 7525,
      "decl": 7526,
      "exper": 7527,
      "rote": 7528,
      "third": 7529,
      "South": 7530,
      "share": 7531,
      "common": 7532,
      "Washington": 7533,
      "however": 7534,
      "ban": 7535,
      "type": 7536,
      "ming": 7537,
      "service": 7538,
      "artment": 7539,
      "anger": 7540,
      "27": 7541,
      "played": 7542,
      "decision": 7543,
      "lies": 7544,
      "ox": 7545,
      "white": 7546,
      "enn": 7547,
      "draw": 7548,
      "energy": 7549,
      "docu": 7550,
      "ai": 7551,
      "federal": 7552,
      "sound": 7553,
      "rate": 7554,
      "China": 7555,
      "model": 7556,
      ".)": 7557,
      "ham": 7558,
      "stat": 7559,
      "signific": 7560,
      "wrote": 7561,
      "role": 7562,
      "2012": 7563,
      "sell": 7564,
      "building": 7565,
      "everything": 7566,
      "conf": 7567,
      "ging": 7568,
      "feat": 7569,
      "final": 7570,
      "ana": 7571,
      "begin": 7572,
      "whole": 7573,
      "further": 7574,
      "ES": 7575,
      "tit": 7576,
      "htt": 7577,
      "development": 7578,
      "word": 7579,
      "released": 7580,
      "**": 7581,
      "attle": 7582,
      "lish": 7583,
      "reme": 7584,
      "dle": 7585,
      "inste": 7586,
      "statement": 7587,
      "matter": 7588,
      "dou": 7589,
      "ife": 7590,
      "Pe": 7591,
      "anim": 7592,
      "Pho": 7593,
      "inj": 7594,
      "elt": 7595,
      "officials": 7596,
      "utes": 7597,
      "companies": 7598,
      "meas": 7599,
      "chall": 7600,
      "seems": 7601,
      "states": 7602,
      "match": 7603,
      "represent": 7604,
      "medi": 7605,
      "26": 7606,
      "administ": 7607,
      "pie": 7608,
      "host": 7609,
      "specific": 7610,
      "mis": 7611,
      "init": 7612,
      "ively": 7613,
      "custom": 7614,
      "ford": 7615,
      "term": 7616,
      "saw": 7617,
      "jud": 7618,
      "character": 7619,
      "track": 7620,
      "itted": 7621,
      "town": 7622,
      "leaders": 7623,
      "uation": 7624,
      "true": 7625,
      "ender": 7626,
      "cand": 7627,
      "://": 7628,
      "changes": 7629,
      "execut": 7630,
      "mag": 7631,
      "asing": 7632,
      "pite": 7633,
      "vironment": 7634,
      "began": 7635,
      "urs": 7636,
      "value": 7637,
      "continue": 7638,
      "general": 7639,
      "students": 7640,
      "News": 7641,
      "28": 7642,
      "personal": 7643,
      "hours": 7644,
      "appear": 7645,
      "himself": 7646,
      "wasn": 7647,
      "Per": 7648,
      "address": 7649,
      "itself": 7650,
      "launch": 7651,
      "typ": 7652,
      "words": 7653,
      "70": 7654,
      "cit": 7655,
      "became": 7656,
      "Sep": 7657,
      "ief": 7658,
      "ently": 7659,
      "evidence": 7660,
      "shot": 7661,
      "amer": 7662,
      "anti": 7663,
      "office": 7664,
      "els": 7665,
      "provide": 7666,
      "crim": 7667,
      "playing": 7668,
      "profess": 7669,
      "lab": 7670,
      "Twit": 7671,
      "above": 7672,
      "vision": 7673,
      "outside": 7674,
      "Face": 7675,
      "needed": 7676,
      "29": 7677,
      "groups": 7678,
      "App": 7679,
      "lement": 7680,
      "themselves": 7681,
      "countries": 7682,
      "simply": 7683,
      "aut": 7684,
      "lam": 7685,
      "interview": 7686,
      "forward": 7687,
      "election": 7688,
      "held": 7689,
      "running": 7690,
      "Cor": 7691,
      "link": 7692,
      "uni": 7693,
      "TV": 7694,
      "ried": 7695,
      "worth": 7696,
      "sequ": 7697,
      "reco": 7698,
      "tru": 7699,
      "gir": 7700,
      "function": 7701,
      "diffic": 7702,
      "deli": 7703,
      "Mus": 7704,
      "espe": 7705,
      "mot": 7706,
      "significant": 7707,
      "include": 7708,
      "ades": 7709,
      "ctor": 7710,
      "continu": 7711,
      "==": 7712,
      "pack": 7713,
      "aul": 7714,
      "ify": 7715,
      "approach": 7716,
      "lock": 7717,
      "especially": 7718,
      "finan": 7719,
      "arter": 7720,
      "pose": 7721,
      "code": 7722,
      "drug": 7723,
      "ends": 7724,
      "Twitter": 7725,
      "vic": 7726,
      "ands": 7727,
      "____": 7728,
      "hor": 7729,
      "White": 7730,
      "expected": 7731,
      "release": 7732,
      "music": 7733,
      "itch": 7734,
      "economic": 7735,
      "pretty": 7736,
      "ctions": 7737,
      "everyone": 7738,
      "needs": 7739,
      "pain": 7740,
      "unity": 7741,
      "Ne": 7742,
      "stay": 7743,
      "below": 7744,
      "div": 7745,
      "wind": 7746,
      "deter": 7747,
      "billion": 7748,
      "super": 7749,
      "ilt": 7750,
      "relation": 7751,
      "vari": 7752,
      "Am": 7753,
      "relig": 7754,
      "quality": 7755,
      "Her": 7756,
      "sense": 7757,
      "push": 7758,
      "hol": 7759,
      "treat": 7760,
      "instead": 7761,
      "Here": 7762,
      "ournal": 7763,
      "necess": 7764,
      "lost": 7765,
      "commit": 7766,
      "vote": 7767,
      "Em": 7768,
      "industry": 7769,
      "quite": 7770,
      "shows": 7771,
      "cir": 7772,
      "rac": 7773,
      "God": 7774,
      "tee": 7775,
      "ports": 7776,
      "audi": 7777,
      "thod": 7778,
      "total": 7779,
      "Facebook": 7780,
      "lower": 7781,
      "believ": 7782,
      "accept": 7783,
      "shoot": 7784,
      "educ": 7785,
      "AC": 7786,
      "nation": 7787,
      "angu": 7788,
      "More": 7789,
      "Su": 7790,
      "198": 7791,
      "ogle": 7792,
      "AM": 7793,
      "log": 7794,
      "Ear": 7795,
      "Oc": 7796,
      "phys": 7797,
      "II": 7798,
      "sess": 7799,
      "cil": 7800,
      "spir": 7801,
      "Aug": 7802,
      "joy": 7803,
      "dict": 7804,
      "ery": 7805,
      "recently": 7806,
      "Qu": 7807,
      "candid": 7808,
      "strate": 7809,
      "Red": 7810,
      "According": 7811,
      "ples": 7812,
      "iding": 7813,
      "alleg": 7814,
      "March": 7815,
      "oud": 7816,
      "Par": 7817,
      "urch": 7818,
      "respect": 7819,
      "serious": 7820,
      "moment": 7821,
      "bly": 7822,
      "sed": 7823,
      "goal": 7824,
      "Photo": 7825,
      "Gre": 7826,
      "sw": 7827,
      "period": 7828,
      "soon": 7829,
      "core": 7830,
      "Of": 7831,
      "weeks": 7832,
      "Des": 7833,
      "Sm": 7834,
      "opport": 7835,
      "popular": 7836,
      "ners": 7837,
      "review": 7838,
      "Ab": 7839,
      "online": 7840,
      "June": 7841,
      "ament": 7842,
      "terror": 7843,
      "forman": 7844,
      "emp": 7845,
      "demand": 7846,
      "page": 7847,
      "Republican": 7848,
      "ino": 7849,
      "2011": 7850,
      "AP": 7851,
      "moved": 7852,
      "bert": 7853,
      "pan": 7854,
      "uel": 7855,
      "Syri": 7856,
      "killed": 7857,
      "comput": 7858,
      "ption": 7859,
      "scri": 7860,
      "famil": 7861,
      "compl": 7862,
      "35": 7863,
      "duct": 7864,
      "wrong": 7865,
      "object": 7866,
      "flo": 7867,
      "rup": 7868,
      "higher": 7869,
      "Act": 7870,
      "coup": 7871,
      "Apr": 7872,
      "rown": 7873,
      "longer": 7874,
      "rew": 7875,
      "surpr": 7876,
      "dead": 7877,
      "Cong": 7878,
      "express": 7879,
      "Google": 7880,
      "San": 7881,
      "article": 7882,
      "sat": 7883,
      "friends": 7884,
      "Department": 7885,
      "heart": 7886,
      "potential": 7887,
      "2010": 7888,
      "refer": 7889,
      "actions": 7890,
      "Even": 7891,
      "sha": 7892,
      "via": 7893,
      "environment": 7894,
      "July": 7895,
      "TH": 7896,
      "prim": 7897,
      "Cour": 7898,
      "Pal": 7899,
      "Off": 7900,
      "gas": 7901,
      "risk": 7902,
      "results": 7903,
      "technology": 7904,
      "hood": 7905,
      "tro": 7906,
      "covered": 7907,
      "amount": 7908,
      "Sat": 7909,
      "services": 7910,
      "scient": 7911,
      "Fir": 7912,
      "difficult": 7913,
      "attempt": 7914,
      "Friday": 7915,
      "anyone": 7916,
      "applic": 7917,
      "account": 7918,
      "comment": 7919,
      "ping": 7920,
      "created": 7921,
      "fair": 7922,
      "Hill": 7923,
      "pet": 7924,
      "target": 7925,
      "Congress": 7926,
      "ember": 7927,
      "AL": 7928,
      "Americans": 7929,
      "dit": 7930,
      "sold": 7931,
      "contract": 7932,
      "lin": 7933,
      "ung": 7934,
      "private": 7935,
      "minutes": 7936,
      "favor": 7937,
      "announced": 7938,
      "Austral": 7939,
      "problems": 7940,
      "moder": 7941,
      "received": 7942,
      "opt": 7943,
      "reve": 7944,
      "speak": 7945,
      "content": 7946,
      "base": 7947,
      "easy": 7948,
      "cases": 7949,
      "haps": 7950,
      "aterial": 7951,
      "April": 7952,
      "original": 7953,
      "earlier": 7954,
      "ouch": 7955,
      "verse": 7956,
      "contribut": 7957,
      "David": 7958,
      "ken": 7959,
      "firm": 7960,
      "performan": 7961,
      "civil": 7962,
      "OS": 7963,
      "OR": 7964,
      "increase": 7965,
      "coach": 7966,
      "na": 7967,
      "heav": 7968,
      "questions": 7969,
      "Russia": 7970,
      "counter": 7971,
      "impact": 7972,
      "lex": 7973,
      "users": 7974,
      "estab": 7975,
      "price": 7976,
      "international": 7977,
      "cannot": 7978,
      "apan": 7979,
      "protest": 7980,
      "IC": 7981,
      "source": 7982,
      "van": 7983,
      "exact": 7984,
      "hope": 7985,
      "Cr": 7986,
      "fast": 7987,
      "bon": 7988,
      "average": 7989,
      "arm": 7990,
      "Israel": 7991,
      "club": 7992,
      "99": 7993,
      "print": 7994,
      "ugg": 7995,
      "fill": 7996,
      "ilities": 7997,
      "ze": 7998,
      "ites": 7999,
      "involved": 8000,
      "First": 8001,
      "nearly": 8002,
      "global": 8003,
      "vict": 8004,
      "hi": 8005,
      "ometimes": 8006,
      "langu": 8007,
      "living": 8008,
      "worked": 8009,
      "leave": 8010,
      "sil": 8011,
      "Japan": 8012,
      "alter": 8013,
      "spect": 8014,
      "Geor": 8015,
      "responsi": 8016,
      "size": 8017,
      "arrest": 8018,
      "Post": 8019,
      "turned": 8020,
      "published": 8021,
      "45": 8022,
      "collect": 8023,
      "oil": 8024,
      "deep": 8025,
      "isl": 8026,
      "regard": 8027,
      "Donald": 8028,
      "lying": 8029,
      "itten": 8030,
      "intro": 8031,
      "East": 8032,
      "workers": 8033,
      "style": 8034,
      "fem": 8035,
      "weap": 8036,
      "capital": 8037,
      "request": 8038,
      "answer": 8039,
      "broad": 8040,
      "response": 8041,
      "staff": 8042,
      "member": 8043,
      "subject": 8044,
      "omb": 8045,
      "inside": 8046,
      "sort": 8047,
      "dol": 8048,
      "star": 8049,
      "decided": 8050,
      "reports": 8051,
      "director": 8052,
      "lack": 8053,
      "emer": 8054,
      "Wed": 8055,
      "lied": 8056,
      "aging": 8057,
      "nia": 8058,
      "January": 8059,
      "tre": 8060,
      "thern": 8061,
      "Tues": 8062,
      "Spe": 8063,
      "dig": 8064,
      "European": 8065,
      "Te": 8066,
      "ote": 8067,
      "ows": 8068,
      "fans": 8069,
      "lines": 8070,
      "cup": 8071,
      "Stre": 8072,
      "cli": 8073,
      "Phil": 8074,
      "immedi": 8075,
      "associ": 8076,
      "terms": 8077,
      "sem": 8078,
      "screen": 8079,
      "Sch": 8080,
      "Monday": 8081,
      "Mi": 8082,
      "hot": 8083,
      "gave": 8084,
      "squ": 8085,
      "email": 8086,
      "EN": 8087,
      "ffer": 8088,
      "takes": 8089,
      "Mark": 8090,
      "Tuesday": 8091,
      "\".": 8092,
      "relationship": 8093,
      "ored": 8094,
      "father": 8095,
      "financial": 8096,
      "tember": 8097,
      "simple": 8098,
      "mother": 8099,
      "bility": 8100,
      "aving": 8101,
      "built": 8102,
      "Char": 8103,
      "Star": 8104,
      "indic": 8105,
      "chance": 8106,
      "September": 8107,
      "happened": 8108,
      "Paul": 8109,
      "Islam": 8110,
      "arri": 8111,
      "buy": 8112,
      "pict": 8113,
      "recogn": 8114,
      "foreign": 8115,
      "Nove": 8116,
      "Ag": 8117,
      "tor": 8118,
      "influ": 8119,
      "west": 8120,
      "izing": 8121,
      "material": 8122,
      "whose": 8123,
      "Then": 8124,
      "onto": 8125,
      "currently": 8126,
      "bel": 8127,
      "Cali": 8128,
      "related": 8129,
      "felt": 8130,
      "British": 8131,
      "rock": 8132,
      "require": 8133,
      "Court": 8134,
      "UK": 8135,
      "production": 8136,
      "Cap": 8137,
      "vertis": 8138,
      "goes": 8139,
      "Well": 8140,
      "perform": 8141,
      "Black": 8142,
      "Dis": 8143,
      "Get": 8144,
      "November": 8145,
      "\",": 8146,
      "El": 8147,
      "usion": 8148,
      "Thurs": 8149,
      "race": 8150,
      "90": 8151,
      "areas": 8152,
      "wood": 8153,
      "heard": 8154,
      "Califor": 8155,
      "corpor": 8156,
      "plans": 8157,
      "couple": 8158,
      "197": 8159,
      "Wednes": 8160,
      ");": 8161,
      "Park": 8162,
      "][": 8163,
      "ica": 8164,
      "ny": 8165,
      "situation": 8166,
      "lives": 8167,
      "Pet": 8168,
      "atives": 8169,
      "walk": 8170,
      "bot": 8171,
      "fell": 8172,
      "grad": 8173,
      "ift": 8174,
      "administration": 8175,
      "huge": 8176,
      "lay": 8177,
      "meeting": 8178,
      "rain": 8179,
      "trade": 8180,
      "Canada": 8181,
      "Wednesday": 8182,
      "Thursday": 8183,
      "IT": 8184,
      "August": 8185,
      "anc": 8186,
      "feature": 8187,
      "thous": 8188,
      "nu": 8189,
      "tool": 8190,
      "From": 8191,
      "loss": 8192,
      "affect": 8193,
      "connect": 8194,
      "text": 8195,
      "Afr": 8196,
      "introdu": 8197,
      "struction": 8198,
      "engine": 8199,
      "stant": 8200,
      "gs": 8201,
      "occur": 8202,
      "Every": 8203,
      "method": 8204,
      "ring": 8205,
      "Lo": 8206,
      "secret": 8207,
      "itor": 8208,
      "Our": 8209,
      "tober": 8210,
      "events": 8211,
      "performance": 8212,
      "allowed": 8213,
      "coin": 8214,
      "tele": 8215,
      "avo": 8216,
      "teams": 8217,
      "quickly": 8218,
      "particip": 8219,
      "California": 8220,
      "mention": 8221,
      "path": 8222,
      "October": 8223,
      "Let": 8224,
      "wo": 8225,
      "seven": 8226,
      "Why": 8227,
      "neigh": 8228,
      "ky": 8229,
      "rid": 8230,
      "letter": 8231,
      "speed": 8232,
      "ises": 8233,
      "prison": 8234,
      "safe": 8235,
      "ival": 8236,
      "atory": 8237,
      "separ": 8238,
      "leading": 8239,
      "aled": 8240,
      "population": 8241,
      "spent": 8242,
      "growth": 8243,
      "economy": 8244,
      "Fin": 8245,
      "travel": 8246,
      "ij": 8247,
      "Sunday": 8248,
      "Dece": 8249,
      "knew": 8250,
      "image": 8251,
      "website": 8252,
      "ani": 8253,
      "istic": 8254,
      "repe": 8255,
      "written": 8256,
      "ases": 8257,
      "improve": 8258,
      "aily": 8259,
      "agre": 8260,
      "inv": 8261,
      "enjoy": 8262,
      "33": 8263,
      "bud": 8264,
      "December": 8265,
      "victim": 8266,
      "2009": 8267,
      "Sup": 8268,
      "tried": 8269,
      "Russian": 8270,
      "morning": 8271,
      "iment": 8272,
      "song": 8273,
      "havi": 8274,
      "Wal": 8275,
      "?”": 8276,
      "Up": 8277,
      "natural": 8278,
      "forces": 8279,
      "rect": 8280,
      "numbers": 8281,
      "user": 8282,
      "career": 8283,
      "legisl": 8284,
      "conduct": 8285,
      "progress": 8286,
      "included": 8287,
      "regular": 8288,
      "Times": 8289,
      "Ma": 8290,
      "perfect": 8291,
      "ients": 8292,
      "independ": 8293,
      "exc": 8294,
      "wants": 8295,
      "card": 8296,
      "fix": 8297,
      "respond": 8298,
      "ceed": 8299,
      "document": 8300,
      "ED": 8301,
      "demon": 8302,
      "prevent": 8303,
      "Iran": 8304,
      "King": 8305,
      "contact": 8306,
      "leader": 8307,
      "looks": 8308,
      "http": 8309,
      "ID": 8310,
      "Kore": 8311,
      "ops": 8312,
      "tour": 8313,
      "——": 8314,
      "range": 8315,
      "xim": 8316,
      "Sand": 8317,
      "visit": 8318,
      "movement": 8319,
      "anch": 8320,
      "sens": 8321,
      "cul": 8322,
      "secut": 8323,
      "paid": 8324,
      "32": 8325,
      "suit": 8326,
      "systems": 8327,
      "Hol": 8328,
      "olution": 8329,
      "Mor": 8330,
      "dy": 8331,
      "veh": 8332,
      "”.": 8333,
      "table": 8334,
      "pread": 8335,
      "500": 8336,
      "erson": 8337,
      "named": 8338,
      "bul": 8339,
      "labor": 8340,
      "citiz": 8341,
      "ological": 8342,
      "slow": 8343,
      "communic": 8344,
      "hear": 8345,
      "Gener": 8346,
      "Lon": 8347,
      "Center": 8348,
      "various": 8349,
      "2008": 8350,
      "brought": 8351,
      "igence": 8352,
      "ico": 8353,
      "Po": 8354,
      "rules": 8355,
      "mach": 8356,
      "focus": 8357,
      "teach": 8358,
      "attention": 8359,
      "network": 8360,
      "behavi": 8361,
      "looked": 8362,
      "Party": 8363,
      "yond": 8364,
      "aming": 8365,
      "exam": 8366,
      "giving": 8367,
      "ering": 8368,
      "medical": 8369,
      "undred": 8370,
      "Ira": 8371,
      "Cent": 8372,
      "fan": 8373,
      "hael": 8374,
      "ordin": 8375,
      "changed": 8376,
      "sn": 8377,
      "Sw": 8378,
      "considered": 8379,
      "Satur": 8380,
      "stead": 8381,
      "Street": 8382,
      "latest": 8383,
      "ST": 8384,
      "31": 8385,
      "OP": 8386,
      "dollar": 8387,
      "parents": 8388,
      "tur": 8389,
      "Police": 8390,
      "hands": 8391,
      "!!!!": 8392,
      "moving": 8393,
      "park": 8394,
      "ires": 8395,
      "arily": 8396,
      "Most": 8397,
      "upon": 8398,
      "employe": 8399,
      "except": 8400,
      "door": 8401,
      "suffer": 8402,
      "talking": 8403,
      "extreme": 8404,
      "Ben": 8405,
      "Iraq": 8406,
      "rank": 8407,
      "weet": 8408,
      "features": 8409,
      "FL": 8410,
      "ties": 8411,
      "science": 8412,
      "aves": 8413,
      "sym": 8414,
      "placed": 8415,
      "paper": 8416,
      "craft": 8417,
      "Read": 8418,
      "poor": 8419,
      "Pat": 8420,
      "depart": 8421,
      "language": 8422,
      "forms": 8423,
      "training": 8424,
      "install": 8425,
      "bir": 8426,
      "India": 8427,
      "Over": 8428,
      "critic": 8429,
      "conserv": 8430,
      "liber": 8431,
      "ays": 8432,
      "Tex": 8433,
      "tware": 8434,
      "Saturday": 8435,
      "learn": 8436,
      "multip": 8437,
      "writing": 8438,
      "Muslim": 8439,
      "weight": 8440,
      "stitution": 8441,
      "roy": 8442,
      "calls": 8443,
      "strugg": 8444,
      "cru": 8445,
      "parts": 8446,
      "Lu": 8447,
      "Ang": 8448,
      "Senate": 8449,
      "plat": 8450,
      "enced": 8451,
      "aker": 8452,
      "investigation": 8453,
      "fa": 8454,
      "Che": 8455,
      "increasing": 8456,
      "quarter": 8457,
      "Rom": 8458,
      "hous": 8459,
      "icles": 8460,
      "wise": 8461,
      "ously": 8462,
      "imag": 8463,
      "36": 8464,
      "defense": 8465,
      "addition": 8466,
      "regul": 8467,
      "stor": 8468,
      "claims": 8469,
      "particularly": 8470,
      "196": 8471,
      "mill": 8472,
      "concl": 8473,
      "immig": 8474,
      "completely": 8475,
      "AD": 8476,
      "incident": 8477,
      "Play": 8478,
      "Oh": 8479,
      "center": 8480,
      "pic": 8481,
      "ledge": 8482,
      "Michael": 8483,
      "consist": 8484,
      "London": 8485,
      "zon": 8486,
      "majority": 8487,
      "income": 8488,
      "rap": 8489,
      "society": 8490,
      "surve": 8491,
      "usually": 8492,
      "journal": 8493,
      "pped": 8494,
      "remember": 8495,
      "mur": 8496,
      "FC": 8497,
      "levels": 8498,
      "sexual": 8499,
      "mine": 8500,
      "active": 8501,
      "Willi": 8502,
      "zz": 8503,
      "pul": 8504,
      "fit": 8505,
      "effort": 8506,
      "aur": 8507,
      "speech": 8508,
      "Lab": 8509,
      "modern": 8510,
      "message": 8511,
      "Since": 8512,
      "piece": 8513,
      "Jew": 8514,
      "rict": 8515,
      "kept": 8516,
      "resour": 8517,
      "rich": 8518,
      "Air": 8519,
      "smo": 8520,
      "attacks": 8521,
      "chief": 8522,
      "People": 8523,
      "County": 8524,
      "Tor": 8525,
      "mist": 8526,
      "required": 8527,
      "Many": 8528,
      "Febr": 8529,
      "although": 8530,
      "officers": 8531,
      "UN": 8532,
      "February": 8533,
      "growing": 8534,
      "analys": 8535,
      "Tur": 8536,
      "jobs": 8537,
      "movie": 8538,
      "bol": 8539,
      "carry": 8540,
      "exactly": 8541,
      "intell": 8542,
      "www": 8543,
      "store": 8544,
      "interesting": 8545,
      "born": 8546,
      "Bro": 8547,
      "obvious": 8548,
      "figure": 8549,
      "prior": 8550,
      "described": 8551,
      "hundred": 8552,
      "middle": 8553,
      "spot": 8554,
      "despite": 8555,
      "limited": 8556,
      "map": 8557,
      "Ke": 8558,
      "bing": 8559,
      "anned": 8560,
      "note": 8561,
      "file": 8562,
      "Sci": 8563,
      "ape": 8564,
      "spokes": 8565,
      "guy": 8566,
      "cross": 8567,
      "Republicans": 8568,
      "century": 8569,
      "ode": 8570,
      "sometimes": 8571,
      "thinking": 8572,
      "iet": 8573,
      "products": 8574,
      "Str": 8575,
      "stuff": 8576,
      "biggest": 8577,
      "sett": 8578,
      "write": 8579,
      "reedom": 8580,
      "crow": 8581,
      "opportunity": 8582,
      "BI": 8583,
      "fo": 8584,
      "extra": 8585,
      "cry": 8586,
      "ries": 8587,
      "practice": 8588,
      "mic": 8589,
      "violence": 8590,
      "rench": 8591,
      "assist": 8592,
      "danger": 8593,
      "continued": 8594,
      "ampion": 8595,
      "Ber": 8596,
      "stories": 8597,
      "ican": 8598,
      "boy": 8599,
      "climate": 8600,
      "thus": 8601,
      "stage": 8602,
      "details": 8603,
      "wall": 8604,
      "served": 8605,
      "34": 8606,
      "37": 8607,
      "ker": 8608,
      "surv": 8609,
      "mat": 8610,
      "EU": 8611,
      "necessary": 8612,
      "histor": 8613,
      "Last": 8614,
      "reading": 8615,
      "League": 8616,
      "finally": 8617,
      "eight": 8618,
      "alone": 8619,
      "rit": 8620,
      "James": 8621,
      "item": 8622,
      "native": 8623,
      "wonder": 8624,
      "Rich": 8625,
      "standard": 8626,
      "inci": 8627,
      "MP": 8628,
      "ses": 8629,
      "designed": 8630,
      "kids": 8631,
      "girl": 8632,
      "appoint": 8633,
      "Bill": 8634,
      "inese": 8635,
      "sle": 8636,
      "spr": 8637,
      "laws": 8638,
      "Net": 8639,
      "?\"": 8640,
      "vice": 8641,
      "entially": 8642,
      "forced": 8643,
      "summer": 8644,
      "spital": 8645,
      "remain": 8646,
      "option": 8647,
      "ension": 8648,
      "deliver": 8649,
      "psy": 8650,
      "skill": 8651,
      "certainly": 8652,
      "rout": 8653,
      "starting": 8654,
      "hur": 8655,
      "implement": 8656,
      "Val": 8657,
      "Democratic": 8658,
      "vertisement": 8659,
      "camer": 8660,
      "lap": 8661,
      "purch": 8662,
      "Chinese": 8663,
      "saf": 8664,
      "nom": 8665,
      "mob": 8666,
      "costs": 8667,
      "happy": 8668,
      "culture": 8669,
      "ening": 8670,
      "lie": 8671,
      "cris": 8672,
      "books": 8673,
      "gone": 8674,
      "appeared": 8675,
      "neg": 8676,
      "aries": 8677,
      "cele": 8678,
      "perhaps": 8679,
      "increased": 8680,
      "forts": 8681,
      "ishing": 8682,
      "wel": 8683,
      "ened": 8684,
      "wife": 8685,
      "education": 8686,
      "select": 8687,
      "capt": 8688,
      "rep": 8689,
      "damage": 8690,
      "correct": 8691,
      "showed": 8692,
      "choice": 8693,
      "Bu": 8694,
      "maintain": 8695,
      "Green": 8696,
      "zer": 8697,
      "provided": 8698,
      "scene": 8699,
      "44": 8700,
      "comments": 8701,
      "Like": 8702,
      "inte": 8703,
      "reality": 8704,
      "ida": 8705,
      "EC": 8706,
      "Because": 8707,
      "region": 8708,
      "soft": 8709,
      "Thank": 8710,
      "died": 8711,
      "Apple": 8712,
      "plant": 8713,
      "remains": 8714,
      "join": 8715,
      "38": 8716,
      "bes": 8717,
      "ert": 8718,
      "PC": 8719,
      "directly": 8720,
      "passed": 8721,
      "charge": 8722,
      "arent": 8723,
      "Mart": 8724,
      "wouldn": 8725,
      "Jack": 8726,
      "hair": 8727,
      "stra": 8728,
      "utions": 8729,
      "rates": 8730,
      "tin": 8731,
      "beyond": 8732,
      "standing": 8733,
      "za": 8734,
      "sec": 8735,
      "sets": 8736,
      "challeng": 8737,
      "ware": 8738,
      "Au": 8739,
      "meaning": 8740,
      "religious": 8741,
      "Texas": 8742,
      "ights": 8743,
      "clean": 8744,
      "multiple": 8745,
      "lic": 8746,
      "touch": 8747,
      "Indian": 8748,
      "strict": 8749,
      "ification": 8750,
      "umb": 8751,
      "epis": 8752,
      "couldn": 8753,
      "Although": 8754,
      "complex": 8755,
      "safety": 8756,
      "Image": 8757,
      "Day": 8758,
      "Minister": 8759,
      "Tom": 8760,
      "property": 8761,
      "additional": 8762,
      "football": 8763,
      "title": 8764,
      "computer": 8765,
      "drive": 8766,
      "blood": 8767,
      "istan": 8768,
      "software": 8769,
      "Bre": 8770,
      "efforts": 8771,
      "atever": 8772,
      "celebr": 8773,
      "Associ": 8774,
      "towards": 8775,
      "suspect": 8776,
      "ables": 8777,
      "High": 8778,
      "claimed": 8779,
      "agree": 8780,
      "ET": 8781,
      "central": 8782,
      "pressure": 8783,
      "CO": 8784,
      "48": 8785,
      "Super": 8786,
      "iff": 8787,
      "voters": 8788,
      "Ho": 8789,
      "includes": 8790,
      "inde": 8791,
      "sites": 8792,
      "command": 8793,
      "School": 8794,
      "guys": 8795,
      "throw": 8796,
      "throughout": 8797,
      "Tod": 8798,
      "relative": 8799,
      "aughter": 8800,
      "opin": 8801,
      "venue": 8802,
      "reli": 8803,
      "enge": 8804,
      "beginning": 8805,
      "immediately": 8806,
      "scr": 8807,
      "akers": 8808,
      "recomm": 8809,
      "George": 8810,
      "student": 8811,
      "insur": 8812,
      "thousands": 8813,
      "Mac": 8814,
      "largest": 8815,
      "(@": 8816,
      "Smith": 8817,
      "effects": 8818,
      "reng": 8819,
      "Gover": 8820,
      "eyes": 8821,
      "appears": 8822,
      "nature": 8823,
      "hero": 8824,
      "gar": 8825,
      "feed": 8826,
      "Mex": 8827,
      "officer": 8828,
      "--------": 8829,
      "ahead": 8830,
      "consum": 8831,
      "agency": 8832,
      "battle": 8833,
      "resh": 8834,
      "German": 8835,
      "English": 8836,
      "era": 8837,
      "receive": 8838,
      "hab": 8839,
      "reached": 8840,
      "cool": 8841,
      "PS": 8842,
      "toward": 8843,
      "controll": 8844,
      "shop": 8845,
      "Democrats": 8846,
      "Wind": 8847,
      "flow": 8848,
      "aint": 8849,
      "league": 8850,
      "organization": 8851,
      "CE": 8852,
      "characters": 8853,
      "dark": 8854,
      "airs": 8855,
      "Def": 8856,
      "mitted": 8857,
      "Germany": 8858,
      "budget": 8859,
      "setting": 8860,
      "bri": 8861,
      "device": 8862,
      "sched": 8863,
      "syn": 8864,
      "trust": 8865,
      "maybe": 8866,
      "iers": 8867,
      "copy": 8868,
      "Reg": 8869,
      "owners": 8870,
      "reasons": 8871,
      "Bel": 8872,
      "drink": 8873,
      "conference": 8874,
      "difference": 8875,
      "aly": 8876,
      "debate": 8877,
      "stock": 8878,
      "failed": 8879,
      "conditions": 8880,
      "places": 8881,
      "brain": 8882,
      "blog": 8883,
      "astic": 8884,
      "positive": 8885,
      "CH": 8886,
      "agon": 8887,
      "stream": 8888,
      "49": 8889,
      "fear": 8890,
      "encies": 8891,
      "ope": 8892,
      "alleged": 8893,
      "Trans": 8894,
      "liter": 8895,
      "uk": 8896,
      "idge": 8897,
      "estim": 8898,
      "Two": 8899,
      "credit": 8900,
      "spending": 8901,
      "adem": 8902,
      "signed": 8903,
      "39": 8904,
      "Ham": 8905,
      "color": 8906,
      "confir": 8907,
      "antic": 8908,
      "Earth": 8909,
      "55": 8910,
      "advant": 8911,
      "Sal": 8912,
      "lease": 8913,
      "mix": 8914,
      "encour": 8915,
      "Syria": 8916,
      "beat": 8917,
      "criminal": 8918,
      "earch": 8919,
      "analysis": 8920,
      "presidential": 8921,
      "French": 8922,
      "helped": 8923,
      "Mer": 8924,
      "During": 8925,
      "allows": 8926,
      "frequ": 8927,
      "section": 8928,
      "shown": 8929,
      "nuclear": 8930,
      "ari": 8931,
      "convers": 8932,
      "Mid": 8933,
      "avoid": 8934,
      "powerful": 8935,
      "yn": 8936,
      "crime": 8937,
      "myself": 8938,
      "bum": 8939,
      "prep": 8940,
      "Other": 8941,
      "green": 8942,
      "Thom": 8943,
      "Jer": 8944,
      "streng": 8945,
      "normal": 8946,
      "executive": 8947,
      "Your": 8948,
      "instit": 8949,
      "meant": 8950,
      "distribut": 8951,
      "eventually": 8952,
      "yourself": 8953,
      "ield": 8954,
      "teen": 8955,
      "counts": 8956,
      "predict": 8957,
      "solute": 8958,
      "bound": 8959,
      "developed": 8960,
      "wing": 8961,
      "Yes": 8962,
      "47": 8963,
      "detail": 8964,
      "stic": 8965,
      "truth": 8966,
      "physical": 8967,
      "General": 8968,
      "origin": 8969,
      "):": 8970,
      "mental": 8971,
      "vention": 8972,
      "voice": 8973,
      "2007": 8974,
      "princi": 8975,
      "politics": 8976,
      "lose": 8977,
      "International": 8978,
      "ultim": 8979,
      "poll": 8980,
      "tic": 8981,
      "thers": 8982,
      "unique": 8983,
      "upd": 8984,
      "college": 8985,
      "hest": 8986,
      "nice": 8987,
      "excl": 8988,
      "eye": 8989,
      "minim": 8990,
      "OT": 8991,
      "acqu": 8992,
      "weapons": 8993,
      "compared": 8994,
      "Mal": 8995,
      "successful": 8996,
      "sou": 8997,
      "Rob": 8998,
      "lection": 8999,
      "cture": 9000,
      "families": 9001,
      "Bit": 9002,
      "prem": 9003,
      "iver": 9004,
      "candidate": 9005,
      "schools": 9006,
      "ufact": 9007,
      "berg": 9008,
      "Bay": 9009,
      "Gold": 9010,
      "SA": 9011,
      "gender": 9012,
      "propos": 9013,
      "unk": 9014,
      "Union": 9015,
      "lands": 9016,
      "followed": 9017,
      "crisis": 9018,
      "integr": 9019,
      "cities": 9020,
      "sea": 9021,
      "smart": 9022,
      "names": 9023,
      "ov": 9024,
      "determin": 9025,
      "ission": 9026,
      "stitute": 9027,
      "ux": 9028,
      "dog": 9029,
      "anced": 9030,
      "Council": 9031,
      "inno": 9032,
      "promot": 9033,
      "contr": 9034,
      "gives": 9035,
      "domin": 9036,
      "fol": 9037,
      "Australia": 9038,
      "fighting": 9039,
      "senior": 9040,
      "apped": 9041,
      "Advertisement": 9042,
      "kick": 9043,
      "willing": 9044,
      "intelligence": 9045,
      "iles": 9046,
      "cise": 9047,
      "Cal": 9048,
      "cat": 9049,
      "easily": 9050,
      "Alex": 9051,
      "Vir": 9052,
      "treatment": 9053,
      "sco": 9054,
      "peace": 9055,
      "station": 9056,
      "activity": 9057,
      "assa": 9058,
      "confl": 9059,
      "murder": 9060,
      "previously": 9061,
      "overall": 9062,
      "rule": 9063,
      "IA": 9064,
      "concept": 9065,
      "Christian": 9066,
      "die": 9067,
      "rise": 9068,
      "decades": 9069,
      "session": 9070,
      "impress": 9071,
      "ideas": 9072,
      "Law": 9073,
      "Mag": 9074,
      "Angel": 9075,
      "analy": 9076,
      "chan": 9077,
      "status": 9078,
      "autom": 9079,
      "omen": 9080,
      "calling": 9081,
      "benefits": 9082,
      "fortun": 9083,
      "display": 9084,
      "expand": 9085,
      "Any": 9086,
      "individuals": 9087,
      "funding": 9088,
      "ateg": 9089,
      "ivity": 9090,
      "PM": 9091,
      "cum": 9092,
      "serve": 9093,
      "operation": 9094,
      "brand": 9095,
      "Stud": 9096,
      "Scott": 9097,
      "Ter": 9098,
      "spread": 9099,
      "hon": 9100,
      "straight": 9101,
      "aware": 9102,
      "projects": 9103,
      "ston": 9104,
      "grand": 9105,
      "Flor": 9106,
      "Also": 9107,
      "winning": 9108,
      "asc": 9109,
      "adding": 9110,
      "beaut": 9111,
      "birth": 9112,
      "continues": 9113,
      "send": 9114,
      "customers": 9115,
      "Met": 9116,
      "Gl": 9117,
      "Follow": 9118,
      "clearly": 9119,
      "agreement": 9120,
      "apparent": 9121,
      "revol": 9122,
      "Ano": 9123,
      "mun": 9124,
      "phen": 9125,
      "Sim": 9126,
      "IP": 9127,
      "Bank": 9128,
      "Are": 9129,
      "Ty": 9130,
      "Another": 9131,
      "highly": 9132,
      "75": 9133,
      "64": 9134,
      "aling": 9135,
      "iew": 9136,
      "iced": 9137,
      "Add": 9138,
      "goals": 9139,
      "noted": 9140,
      "commer": 9141,
      "minor": 9142,
      "doub": 9143,
      "itely": 9144,
      "eth": 9145,
      "aud": 9146,
      "closed": 9147,
      "larger": 9148,
      "Once": 9149,
      "policies": 9150,
      "seemed": 9151,
      "Who": 9152,
      "greater": 9153,
      "comfort": 9154,
      "wait": 9155,
      "studies": 9156,
      "democr": 9157,
      "save": 9158,
      "je": 9159,
      "female": 9160,
      "scale": 9161,
      "fine": 9162,
      "Sam": 9163,
      "seeing": 9164,
      "tick": 9165,
      "psych": 9166,
      "org": 9167,
      "enforce": 9168,
      "CN": 9169,
      "feet": 9170,
      "knowledge": 9171,
      "Art": 9172,
      "aste": 9173,
      "traditional": 9174,
      "caused": 9175,
      "bomb": 9176,
      "gold": 9177,
      "spend": 9178,
      "charges": 9179,
      "measure": 9180,
      "enem": 9181,
      "ta": 9182,
      "lif": 9183,
      "abs": 9184,
      "options": 9185,
      "task": 9186,
      "Ry": 9187,
      "challenge": 9188,
      "stood": 9189,
      "PR": 9190,
      "organiz": 9191,
      "goti": 9192,
      "church": 9193,
      "patients": 9194,
      "manufact": 9195,
      "shooting": 9196,
      "riage": 9197,
      "Health": 9198,
      "Hillary": 9199,
      "absolute": 9200,
      "scen": 9201,
      "stick": 9202,
      "produce": 9203,
      "knows": 9204,
      "ease": 9205,
      "sales": 9206,
      "emot": 9207,
      "sources": 9208,
      "Press": 9209,
      "resources": 9210,
      "bs": 9211,
      "chair": 9212,
      "Lou": 9213,
      "sey": 9214,
      "manager": 9215,
      "primary": 9216,
      "Er": 9217,
      "Sha": 9218,
      "ality": 9219,
      "minister": 9220,
      "haven": 9221,
      "France": 9222,
      "temper": 9223,
      "ante": 9224,
      "employees": 9225,
      "suppor": 9226,
      "Mil": 9227,
      "creating": 9228,
      "mostly": 9229,
      "moun": 9230,
      "rare": 9231,
      "See": 9232,
      "programs": 9233,
      "produced": 9234,
      "ado": 9235,
      "GB": 9236,
      "hospital": 9237,
      "neighbor": 9238,
      "basic": 9239,
      "Cur": 9240,
      "actual": 9241,
      "asy": 9242,
      "isions": 9243,
      "leaving": 9244,
      "England": 9245,
      "effic": 9246,
      "bab": 9247,
      "researchers": 9248,
      "whatever": 9249,
      "Internet": 9250,
      "sad": 9251,
      "Frank": 9252,
      "Bush": 9253,
      "reflect": 9254,
      "iar": 9255,
      "Sanders": 9256,
      "Florida": 9257,
      "Rev": 9258,
      "ensure": 9259,
      "trou": 9260,
      "prosecut": 9261,
      "fee": 9262,
      "freedom": 9263,
      "46": 9264,
      "catch": 9265,
      "pool": 9266,
      "establish": 9267,
      "types": 9268,
      "agreed": 9269,
      "ville": 9270,
      "edge": 9271,
      "iction": 9272,
      "fal": 9273,
      "negoti": 9274,
      "shut": 9275,
      "ube": 9276,
      "Det": 9277,
      "etc": 9278,
      ".’": 9279,
      "ram": 9280,
      "enty": 9281,
      "Chic": 9282,
      "values": 9283,
      "street": 9284,
      "drop": 9285,
      "orders": 9286,
      "ga": 9287,
      "repor": 9288,
      "</": 9289,
      "images": 9290,
      "demonstr": 9291,
      "Hum": 9292,
      "witch": 9293,
      "supposed": 9294,
      "resist": 9295,
      "ked": 9296,
      "authorities": 9297,
      "La": 9298,
      "rant": 9299,
      "Sub": 9300,
      "dre": 9301,
      "Instead": 9302,
      "concerns": 9303,
      "roid": 9304,
      "massive": 9305,
      "Wall": 9306,
      "ength": 9307,
      "raised": 9308,
      "behavior": 9309,
      "frame": 9310,
      "Under": 9311,
      "fle": 9312,
      "Tech": 9313,
      "jump": 9314,
      "confirmed": 9315,
      "oph": 9316,
      "mail": 9317,
      "limit": 9318,
      "border": 9319,
      "coal": 9320,
      "bled": 9321,
      "asking": 9322,
      "NA": 9323,
      "Today": 9324,
      "assu": 9325,
      "Those": 9326,
      "critical": 9327,
      "wealth": 9328,
      "happens": 9329,
      "citizens": 9330,
      "cars": 9331,
      "Port": 9332,
      "lor": 9333,
      "mechan": 9334,
      "Big": 9335,
      "feeling": 9336,
      "independent": 9337,
      "da": 9338,
      "ava": 9339,
      "Mike": 9340,
      "Chicago": 9341,
      "Bur": 9342,
      "arms": 9343,
      "responsible": 9344,
      "application": 9345,
      "Chris": 9346,
      "favorite": 9347,
      "________": 9348,
      "species": 9349,
      "Western": 9350,
      "offered": 9351,
      "prices": 9352,
      "iving": 9353,
      "memory": 9354,
      "IL": 9355,
      "tend": 9356,
      "Palest": 9357,
      "Ru": 9358,
      "mod": 9359,
      "choose": 9360,
      "solution": 9361,
      ".'": 9362,
      "san": 9363,
      "appropri": 9364,
      "Arab": 9365,
      "bod": 9366,
      "posted": 9367,
      "eff": 9368,
      "fat": 9369,
      "sun": 9370,
      "chain": 9371,
      "iled": 9372,
      "weekend": 9373,
      "Game": 9374,
      "trial": 9375,
      "42": 9376,
      "album": 9377,
      "residents": 9378,
      "benefit": 9379,
      "MO": 9380,
      "eli": 9381,
      "lawy": 9382,
      "none": 9383,
      "Commission": 9384,
      "arrested": 9385,
      "ager": 9386,
      "erve": 9387,
      "PA": 9388,
      "iful": 9389,
      "slight": 9390,
      "virt": 9391,
      "investment": 9392,
      "lets": 9393,
      "Secret": 9394,
      "picture": 9395,
      "whom": 9396,
      "believed": 9397,
      "Mill": 9398,
      "parties": 9399,
      "effective": 9400,
      "supported": 9401,
      "rob": 9402,
      "mir": 9403,
      "brief": 9404,
      "gi": 9405,
      "blue": 9406,
      "revealed": 9407,
      "Los": 9408,
      "2006": 9409,
      "learning": 9410,
      "ING": 9411,
      "devices": 9412,
      "Justice": 9413,
      "EL": 9414,
      "heavy": 9415,
      "BA": 9416,
      "Ken": 9417,
      "attract": 9418,
      "pal": 9419,
      "Commit": 9420,
      "east": 9421,
      "curren": 9422,
      "Mad": 9423,
      "interested": 9424,
      "MA": 9425,
      "dollars": 9426,
      "IR": 9427,
      "Security": 9428,
      "strategy": 9429,
      "inner": 9430,
      "Pri": 9431,
      "advis": 9432,
      "65": 9433,
      "ota": 9434,
      "rating": 9435,
      "ieve": 9436,
      "Research": 9437,
      "mas": 9438,
      "ighest": 9439,
      "advantage": 9440,
      "dire": 9441,
      "learned": 9442,
      "Out": 9443,
      "inch": 9444,
      "thes": 9445,
      "male": 9446,
      "mig": 9447,
      "opening": 9448,
      "understanding": 9449,
      "”,": 9450,
      "train": 9451,
      "NFL": 9452,
      "preci": 9453,
      "records": 9454,
      "Micro": 9455,
      "vs": 9456,
      "Lin": 9457,
      "advoc": 9458,
      "Sil": 9459,
      "patter": 9460,
      "opposition": 9461,
      "Franc": 9462,
      "bow": 9463,
      "Canadian": 9464,
      "influence": 9465,
      "infr": 9466,
      "gers": 9467,
      "Both": 9468,
      "justice": 9469,
      "digital": 9470,
      "Direct": 9471,
      "amaz": 9472,
      "mode": 9473,
      "runs": 9474,
      "aj": 9475,
      "ami": 9476,
      "platform": 9477,
      "apt": 9478,
      "condition": 9479,
      "charged": 9480,
      "gather": 9481,
      "defend": 9482,
      "showing": 9483,
      "Prof": 9484,
      "minute": 9485,
      "belief": 9486,
      "opened": 9487,
      "construction": 9488,
      "300": 9489,
      "stone": 9490,
      "affic": 9491,
      "====": 9492,
      "SS": 9493,
      "Uk": 9494,
      "existing": 9495,
      "Liber": 9496,
      "stated": 9497,
      "generation": 9498,
      "explained": 9499,
      "daily": 9500,
      "plus": 9501,
      "highest": 9502,
      "shock": 9503,
      "vill": 9504,
      "debt": 9505,
      "Dist": 9506,
      "arian": 9507,
      "profit": 9508,
      "Ver": 9509,
      "pun": 9510,
      "location": 9511,
      "politic": 9512,
      "offers": 9513,
      "guard": 9514,
      "generally": 9515,
      "telling": 9516,
      "operations": 9517,
      "ni": 9518,
      "Francis": 9519,
      "nine": 9520,
      "mobile": 9521,
      "DA": 9522,
      "kid": 9523,
      "occup": 9524,
      "camera": 9525,
      "judge": 9526,
      "43": 9527,
      "fant": 9528,
      "DC": 9529,
      "Fox": 9530,
      "Sur": 9531,
      "provides": 9532,
      "hack": 9533,
      "worse": 9534,
      "Robert": 9535,
      "fare": 9536,
      "2000": 9537,
      "aked": 9538,
      "equip": 9539,
      "rants": 9540,
      "Tal": 9541,
      "icit": 9542,
      "oppon": 9543,
      "illegal": 9544,
      "structure": 9545,
      "vin": 9546,
      "makers": 9547,
      "sole": 9548,
      "liament": 9549,
      "driving": 9550,
      "Cup": 9551,
      "spl": 9552,
      "Leg": 9553,
      "Govern": 9554,
      "Please": 9555,
      "ads": 9556,
      "2005": 9557,
      "Office": 9558,
      "Jud": 9559,
      "definitely": 9560,
      "Time": 9561,
      "figh": 9562,
      "surround": 9563,
      "Brown": 9564,
      "Committee": 9565,
      "Sto": 9566,
      "holding": 9567,
      "sleep": 9568,
      "extremely": 9569,
      "usual": 9570,
      "theory": 9571,
      "management": 9572,
      "bottom": 9573,
      "constant": 9574,
      "ingly": 9575,
      "bour": 9576,
      "destroy": 9577,
      "accur": 9578,
      "views": 9579,
      "LA": 9580,
      "Back": 9581,
      "false": 9582,
      "ault": 9583,
      "opinion": 9584,
      "professional": 9585,
      "prefer": 9586,
      "machine": 9587,
      "consci": 9588,
      "Korea": 9589,
      "Del": 9590,
      "attor": 9591,
      "categ": 9592,
      "millions": 9593,
      "consu": 9594,
      "gency": 9595,
      "transfer": 9596,
      "rated": 9597,
      "occas": 9598,
      "Britain": 9599,
      "Pre": 9600,
      "floor": 9601,
      "Tri": 9602,
      "purpose": 9603,
      "electric": 9604,
      "owers": 9605,
      "wish": 9606,
      "Que": 9607,
      "becoming": 9608,
      "notice": 9609,
      "Islamic": 9610,
      "Despite": 9611,
      "Web": 9612,
      "ae": 9613,
      "Bal": 9614,
      "length": 9615,
      "pitch": 9616,
      "partners": 9617,
      "Rel": 9618,
      "tough": 9619,
      "negative": 9620,
      "Their": 9621,
      "associated": 9622,
      "shared": 9623,
      "oo": 9624,
      "double": 9625,
      "hundreds": 9626,
      "notes": 9627,
      "olf": 9628,
      "putting": 9629,
      "owner": 9630,
      "identified": 9631,
      "Church": 9632,
      "episode": 9633,
      "MS": 9634,
      "proposed": 9635,
      "click": 9636,
      "unit": 9637,
      "Windows": 9638,
      "err": 9639,
      "ining": 9640,
      "odes": 9641,
      "uana": 9642,
      "mentioned": 9643,
      "separate": 9644,
      "solid": 9645,
      "obtain": 9646,
      "reduce": 9647,
      "basis": 9648,
      "hearing": 9649,
      "earth": 9650,
      "Israeli": 9651,
      "41": 9652,
      "ito": 9653,
      "becomes": 9654,
      "Open": 9655,
      "UT": 9656,
      "afford": 9657,
      "television": 9658,
      "95": 9659,
      "faith": 9660,
      "ding": 9661,
      "controvers": 9662,
      "committee": 9663,
      "scientists": 9664,
      "zen": 9665,
      "daughter": 9666,
      "valid": 9667,
      "driver": 9668,
      "marriage": 9669,
      "remark": 9670,
      "eg": 9671,
      "Johnson": 9672,
      "rupt": 9673,
      "initial": 9674,
      "Good": 9675,
      "Gree": 9676,
      "wild": 9677,
      "PD": 9678,
      "atically": 9679,
      "coverage": 9680,
      "bell": 9681,
      "prop": 9682,
      "Medic": 9683,
      "insurance": 9684,
      "fresh": 9685,
      "phil": 9686,
      "formation": 9687,
      "miles": 9688,
      "legislation": 9689,
      "ered": 9690,
      "rum": 9691,
      "Will": 9692,
      "atures": 9693,
      "Ap": 9694,
      "FBI": 9695,
      "announce": 9696,
      "usive": 9697,
      "animals": 9698,
      "achieve": 9699,
      "complet": 9700,
      "Tre": 9701,
      "ato": 9702,
      "master": 9703,
      "rian": 9704,
      "ements": 9705,
      "dem": 9706,
      "internet": 9707,
      "pto": 9708,
      "issued": 9709,
      "conservative": 9710,
      "Ros": 9711,
      "BS": 9712,
      "nel": 9713,
      "imin": 9714,
      "restrict": 9715,
      "Found": 9716,
      "56": 9717,
      "tack": 9718,
      "icated": 9719,
      "vehicle": 9720,
      "flag": 9721,
      "cards": 9722,
      "accused": 9723,
      "ML": 9724,
      "lished": 9725,
      "famous": 9726,
      "cancer": 9727,
      "cells": 9728,
      "dangerous": 9729,
      "Miss": 9730,
      "documents": 9731,
      "gay": 9732,
      "aspect": 9733,
      "uries": 9734,
      "traffic": 9735,
      "gent": 9736,
      "ume": 9737,
      "watching": 9738,
      "LE": 9739,
      "amed": 9740,
      "raz": 9741,
      "Ukrain": 9742,
      "Yet": 9743,
      "enforcement": 9744,
      "returned": 9745,
      "Book": 9746,
      "Cha": 9747,
      "IV": 9748,
      "Jeff": 9749,
      "discovered": 9750,
      "server": 9751,
      "easier": 9752,
      "argument": 9753,
      "78": 9754,
      "Tim": 9755,
      "instance": 9756,
      "iven": 9757,
      "audience": 9758,
      "hus": 9759,
      "tact": 9760,
      "fuel": 9761,
      "gree": 9762,
      "McC": 9763,
      "ijuana": 9764,
      "doubt": 9765,
      "Ama": 9766,
      "exer": 9767,
      "radio": 9768,
      "sid": 9769,
      "victims": 9770,
      "hun": 9771,
      "leadership": 9772,
      "commercial": 9773,
      "Group": 9774,
      "ores": 9775,
      "joined": 9776,
      "incredi": 9777,
      "Sou": 9778,
      "older": 9779,
      "allowing": 9780,
      "plays": 9781,
      "grade": 9782,
      "Richard": 9783,
      "eline": 9784,
      "stress": 9785,
      "vation": 9786,
      "established": 9787,
      "han": 9788,
      "steps": 9789,
      "victory": 9790,
      "keeping": 9791,
      "Gar": 9792,
      "eat": 9793,
      "tests": 9794,
      "cash": 9795,
      "itter": 9796,
      "surface": 9797,
      "ships": 9798,
      "Jones": 9799,
      "capac": 9800,
      "trig": 9801,
      "compar": 9802,
      "sust": 9803,
      "spoke": 9804,
      "entirely": 9805,
      "launched": 9806,
      "items": 9807,
      "repeated": 9808,
      "micro": 9809,
      "background": 9810,
      "iev": 9811,
      "missing": 9812,
      "supporters": 9813,
      "missed": 9814,
      "voted": 9815,
      "department": 9816,
      "aggress": 9817,
      "Jim": 9818,
      "Mur": 9819,
      "explain": 9820,
      "sch": 9821,
      "iring": 9822,
      "finding": 9823,
      "communities": 9824,
      "north": 9825,
      "THE": 9826,
      "worst": 9827,
      "Carol": 9828,
      "tip": 9829,
      "please": 9830,
      "pa": 9831,
      "heat": 9832,
      "champion": 9833,
      "download": 9834,
      "Rock": 9835,
      "crowd": 9836,
      "bling": 9837,
      "maxim": 9838,
      "tren": 9839,
      "familiar": 9840,
      "abilities": 9841,
      "Afgh": 9842,
      "concerned": 9843,
      "Institute": 9844,
      "focused": 9845,
      "ara": 9846,
      "banks": 9847,
      "andon": 9848,
      "testing": 9849,
      "ght": 9850,
      "graphy": 9851,
      "Louis": 9852,
      "shall": 9853,
      "cook": 9854,
      "hone": 9855,
      "experiment": 9856,
      "burn": 9857,
      "https": 9858,
      "2018": 9859,
      "bag": 9860,
      "lad": 9861,
      "swe": 9862,
      "tools": 9863,
      "mous": 9864,
      "weak": 9865,
      "Bitcoin": 9866,
      "Fore": 9867,
      "cro": 9868,
      "dome": 9869,
      "degree": 9870,
      "spirit": 9871,
      "inct": 9872,
      "CA": 9873,
      "brary": 9874,
      "fish": 9875,
      "reform": 9876,
      "flight": 9877,
      "66": 9878,
      "istics": 9879,
      "0000": 9880,
      "crew": 9881,
      "contain": 9882,
      "lip": 9883,
      "writer": 9884,
      "rial": 9885,
      "decade": 9886,
      "Team": 9887,
      "corporate": 9888,
      "grant": 9889,
      "restaur": 9890,
      "strength": 9891,
      "requires": 9892,
      "01": 9893,
      "guess": 9894,
      "direction": 9895,
      "gain": 9896,
      "consequ": 9897,
      "Mod": 9898,
      "witness": 9899,
      "59": 9900,
      "strike": 9901,
      "initi": 9902,
      "Virgin": 9903,
      "Japanese": 9904,
      "58": 9905,
      "competition": 9906,
      "editor": 9907,
      "UR": 9908,
      "terri": 9909,
      "raise": 9910,
      "2004": 9911,
      "ano": 9912,
      "Mary": 9913,
      "believes": 9914,
      "planning": 9915,
      "housing": 9916,
      "farm": 9917,
      "smaller": 9918,
      "dat": 9919,
      "icon": 9920,
      "bid": 9921,
      "ule": 9922,
      "partner": 9923,
      "Palestin": 9924,
      "itude": 9925,
      "oppos": 9926,
      "annual": 9927,
      "suggested": 9928,
      "girls": 9929,
      "ounds": 9930,
      "Ryan": 9931,
      "57": 9932,
      "yes": 9933,
      "utin": 9934,
      "Atl": 9935,
      "brow": 9936,
      "assault": 9937,
      "changing": 9938,
      "husband": 9939,
      "USA": 9940,
      "homes": 9941,
      "pm": 9942,
      "truly": 9943,
      "zone": 9944,
      "compon": 9945,
      "Mexico": 9946,
      "Sol": 9947,
      "largely": 9948,
      "mical": 9949,
      "concern": 9950,
      "Bet": 9951,
      "nut": 9952,
      "waiting": 9953,
      "drugs": 9954,
      "caught": 9955,
      "crash": 9956,
      "chann": 9957,
      "detect": 9958,
      "nic": 9959,
      "acts": 9960,
      "African": 9961,
      "Free": 9962,
      "TO": 9963,
      "!”": 9964,
      "ctors": 9965,
      "Supreme": 9966,
      "Pak": 9967,
      "businesses": 9968,
      "Ok": 9969,
      "funds": 9970,
      "employment": 9971,
      "iel": 9972,
      "54": 9973,
      "Public": 9974,
      "izes": 9975,
      "conflict": 9976,
      "Thomas": 9977,
      "Watch": 9978,
      "pair": 9979,
      "()": 9980,
      "presence": 9981,
      "52": 9982,
      "infl": 9983,
      "register": 9984,
      "Ir": 9985,
      "icy": 9986,
      "union": 9987,
      "strateg": 9988,
      "string": 9989,
      "mut": 9990,
      "Association": 9991,
      "useful": 9992,
      "transport": 9993,
      "photos": 9994,
      "providing": 9995,
      "hate": 9996,
      "alle": 9997,
      "ester": 9998,
      "connection": 9999,
      "Afghan": 10000,
      "Government": 10001,
      "introduced": 10002,
      "managed": 10003,
      "recommend": 10004,
      "Sing": 10005,
      "rat": 10006,
      "update": 10007,
      "assess": 10008,
      "sche": 10009,
      "balance": 10010,
      "ya": 10011,
      "isation": 10012,
      "speaking": 10013,
      "hib": 10014,
      "Fire": 10015,
      "Jewish": 10016,
      "planet": 10017,
      "Great": 10018,
      "lights": 10019,
      "Martin": 10020,
      "igan": 10021,
      "offensive": 10022,
      "Microsoft": 10023,
      "disease": 10024,
      "measures": 10025,
      "commission": 10026,
      "finished": 10027,
      "activities": 10028,
      "igned": 10029,
      "aps": 10030,
      "laugh": 10031,
      "Prime": 10032,
      "HT": 10033,
      "skin": 10034,
      "ios": 10035,
      "circum": 10036,
      "iling": 10037,
      "selling": 10038,
      "##": 10039,
      "Bern": 10040,
      "candidates": 10041,
      "south": 10042,
      "Army": 10043,
      "CEO": 10044,
      "Service": 10045,
      "brother": 10046,
      "andom": 10047,
      "talent": 10048,
      "portion": 10049,
      "Ko": 10050,
      "fourth": 10051,
      "holds": 10052,
      "Jon": 10053,
      "draft": 10054,
      "relatively": 10055,
      "sports": 10056,
      "eful": 10057,
      "Mat": 10058,
      "irt": 10059,
      "arrived": 10060,
      "conversation": 10061,
      "Africa": 10062,
      "stopped": 10063,
      "committed": 10064,
      "outs": 10065,
      "tells": 10066,
      "Ms": 10067,
      "itation": 10068,
      "revolution": 10069,
      "cript": 10070,
      "eval": 10071,
      "accident": 10072,
      "gins": 10073,
      "faces": 10074,
      "sky": 10075,
      "azine": 10076,
      "Dan": 10077,
      "decisions": 10078,
      "taxes": 10079,
      "Den": 10080,
      "Hel": 10081,
      "cuts": 10082,
      "novel": 10083,
      "spokesman": 10084,
      "beautiful": 10085,
      "refuge": 10086,
      "reject": 10087,
      "liance": 10088,
      "planned": 10089,
      "anta": 10090,
      "Di": 10091,
      "slightly": 10092,
      "iation": 10093,
      "sides": 10094,
      "Angeles": 10095,
      "Jose": 10096,
      "marijuana": 10097,
      "subscri": 10098,
      "loved": 10099,
      "Gen": 10100,
      "interests": 10101,
      "identity": 10102,
      "icial": 10103,
      "fing": 10104,
      "cks": 10105,
      "ba": 10106,
      "scientific": 10107,
      "beer": 10108,
      "award": 10109,
      "pts": 10110,
      "removed": 10111,
      "mere": 10112,
      "eless": 10113,
      "Top": 10114,
      "hasn": 10115,
      "killing": 10116,
      "feels": 10117,
      "corner": 10118,
      "protection": 10119,
      "Bef": 10120,
      "presents": 10121,
      "GOP": 10122,
      "construct": 10123,
      "Before": 10124,
      "abuse": 10125,
      "therefore": 10126,
      "collection": 10127,
      "fired": 10128,
      "injury": 10129,
      "boys": 10130,
      "Camp": 10131,
      "adium": 10132,
      "lived": 10133,
      "failure": 10134,
      "formed": 10135,
      "files": 10136,
      "armed": 10137,
      "constitution": 10138,
      "dden": 10139,
      "bac": 10140,
      "ka": 10141,
      "Bob": 10142,
      "context": 10143,
      "techni": 10144,
      "Colle": 10145,
      "immigration": 10146,
      "skills": 10147,
      "Roy": 10148,
      "uce": 10149,
      "ounder": 10150,
      "otherwise": 10151,
      "Secretary": 10152,
      "itz": 10153,
      "oring": 10154,
      "mes": 10155,
      "newsp": 10156,
      "atest": 10157,
      "standards": 10158,
      "expensive": 10159,
      "vant": 10160,
      "bass": 10161,
      "paying": 10162,
      "fiel": 10163,
      "fellow": 10164,
      "healthy": 10165,
      "numer": 10166,
      "rot": 10167,
      "hang": 10168,
      "Amazon": 10169,
      "supply": 10170,
      "environmental": 10171,
      "abort": 10172,
      "intended": 10173,
      "seconds": 10174,
      "rig": 10175,
      "models": 10176,
      "Mass": 10177,
      "py": 10178,
      "Social": 10179,
      "Comp": 10180,
      "Egy": 10181,
      "51": 10182,
      "FA": 10183,
      "Hall": 10184,
      "acknow": 10185,
      "Year": 10186,
      "Work": 10187,
      "Mos": 10188,
      "optim": 10189,
      "seek": 10190,
      "ronic": 10191,
      "CP": 10192,
      "animal": 10193,
      "Media": 10194,
      "thanks": 10195,
      "losing": 10196,
      "!\"": 10197,
      "Android": 10198,
      "bott": 10199,
      "survey": 10200,
      "fortunately": 10201,
      "53": 10202,
      "mad": 10203,
      "prove": 10204,
      "Peter": 10205,
      "figures": 10206,
      "mm": 10207,
      "unless": 10208,
      "carbon": 10209,
      "RO": 10210,
      "nar": 10211,
      "illa": 10212,
      "batter": 10213,
      "Ari": 10214,
      "score": 10215,
      "philos": 10216,
      "promise": 10217,
      "exchange": 10218,
      "enses": 10219,
      "sudden": 10220,
      "Egypt": 10221,
      "convict": 10222,
      "Syrian": 10223,
      "Chief": 10224,
      "appropriate": 10225,
      "bles": 10226,
      "ucky": 10227,
      "Look": 10228,
      "talks": 10229,
      "turns": 10230,
      "Pan": 10231,
      "ults": 10232,
      "possibly": 10233,
      "appearance": 10234,
      "suggests": 10235,
      "400": 10236,
      "Bow": 10237,
      "Where": 10238,
      "discussion": 10239,
      "filled": 10240,
      "IG": 10241,
      "neighborhood": 10242,
      "defensive": 10243,
      "reser": 10244,
      "filed": 10245,
      "****": 10246,
      "mort": 10247,
      "professor": 10248,
      "domestic": 10249,
      "veter": 10250,
      "Central": 10251,
      "Only": 10252,
      "sho": 10253,
      ">>": 10254,
      "tweet": 10255,
      "ansion": 10256,
      "absolutely": 10257,
      "ME": 10258,
      "eah": 10259,
      "Toronto": 10260,
      "lon": 10261,
      "Bud": 10262,
      "starts": 10263,
      "organizations": 10264,
      "broken": 10265,
      "insp": 10266,
      "acting": 10267,
      "operating": 10268,
      "evil": 10269,
      "humans": 10270,
      "Lee": 10271,
      "Phone": 10272,
      "univers": 10273,
      "dropped": 10274,
      "connected": 10275,
      "pes": 10276,
      "gotten": 10277,
      "sight": 10278,
      "seeking": 10279,
      "religion": 10280,
      "Gal": 10281,
      "accounts": 10282,
      "remind": 10283,
      "consul": 10284,
      "elements": 10285,
      "Jes": 10286,
      "sor": 10287,
      "elected": 10288,
      "Matt": 10289,
      "noon": 10290,
      "conce": 10291,
      "College": 10292,
      "gradu": 10293,
      "cycle": 10294,
      "amazing": 10295,
      "glass": 10296,
      "broadcast": 10297,
      "suff": 10298,
      "markets": 10299,
      "switch": 10300,
      "happening": 10301,
      "arg": 10302,
      "finish": 10303,
      "trip": 10304,
      "uty": 10305,
      "vast": 10306,
      "decide": 10307,
      "capacity": 10308,
      "].": 10309,
      "Williams": 10310,
      "Show": 10311,
      "satis": 10312,
      "!!!!!!!!": 10313,
      "bin": 10314,
      "variety": 10315,
      "rush": 10316,
      "academ": 10317,
      "ares": 10318,
      "apping": 10319,
      "1990": 10320,
      "lots": 10321,
      "Guard": 10322,
      "ifying": 10323,
      "schedul": 10324,
      "button": 10325,
      "carried": 10326,
      "lym": 10327,
      "district": 10328,
      "warning": 10329,
      "depth": 10330,
      "CNN": 10331,
      "alternative": 10332,
      "eter": 10333,
      "units": 10334,
      "impossible": 10335,
      "twice": 10336,
      "Journal": 10337,
      "stars": 10338,
      "pil": 10339,
      "fundament": 10340,
      "fif": 10341,
      "secure": 10342,
      "helping": 10343,
      "uded": 10344,
      "bigger": 10345,
      "creation": 10346,
      "mov": 10347,
      "AF": 10348,
      "Federal": 10349,
      "auto": 10350,
      "susp": 10351,
      "Mean": 10352,
      "valu": 10353,
      "apers": 10354,
      "Joe": 10355,
      "votes": 10356,
      "solar": 10357,
      "Men": 10358,
      "astru": 10359,
      "medic": 10360,
      "window": 10361,
      "68": 10362,
      "breaking": 10363,
      "Images": 10364,
      "Sum": 10365,
      "ett": 10366,
      "Conserv": 10367,
      "graphic": 10368,
      "increasingly": 10369,
      "error": 10370,
      "Down": 10371,
      "adjust": 10372,
      "aine": 10373,
      "worry": 10374,
      "plants": 10375,
      "arante": 10376,
      "agencies": 10377,
      "Bost": 10378,
      "wear": 10379,
      "aints": 10380,
      "Maybe": 10381,
      "vul": 10382,
      "apply": 10383,
      "comed": 10384,
      "sounds": 10385,
      "cow": 10386,
      "prime": 10387,
      "Far": 10388,
      "harm": 10389,
      "NAS": 10390,
      "owned": 10391,
      "Blue": 10392,
      "Sher": 10393,
      "Though": 10394,
      "iders": 10395,
      "shots": 10396,
      "spring": 10397,
      "pi": 10398,
      "sector": 10399,
      "faced": 10400,
      "fly": 10401,
      "quar": 10402,
      "chemical": 10403,
      "Each": 10404,
      "kin": 10405,
      "ancy": 10406,
      "uters": 10407,
      "Mel": 10408,
      "Cath": 10409,
      "Rem": 10410,
      "pieces": 10411,
      "lean": 10412,
      "located": 10413,
      "uration": 10414,
      "cred": 10415,
      "possibility": 10416,
      "voc": 10417,
      "Glo": 10418,
      "Steve": 10419,
      "authority": 10420,
      "Hor": 10421,
      "seat": 10422,
      "regarding": 10423,
      "positions": 10424,
      "sitting": 10425,
      "ander": 10426,
      "Lat": 10427,
      "Rad": 10428,
      "Note": 10429,
      "imagine": 10430,
      "agues": 10431,
      "apparently": 10432,
      "Ve": 10433,
      "trail": 10434,
      "————": 10435,
      "ibility": 10436,
      "developing": 10437,
      "Fig": 10438,
      "army": 10439,
      "surprising": 10440,
      "va": 10441,
      "acher": 10442,
      "Ron": 10443,
      "crack": 10444,
      "HL": 10445,
      "eper": 10446,
      "Life": 10447,
      "prospect": 10448,
      "Force": 10449,
      "ultimately": 10450,
      "honest": 10451,
      "Virginia": 10452,
      "bringing": 10453,
      "Hu": 10454,
      "patch": 10455,
      "Boston": 10456,
      "aks": 10457,
      "awa": 10458,
      "ulture": 10459,
      "capable": 10460,
      "prepared": 10461,
      "currency": 10462,
      "aces": 10463,
      "factor": 10464,
      "script": 10465,
      "Mich": 10466,
      "icide": 10467,
      "poses": 10468,
      "SP": 10469,
      "lyn": 10470,
      "ups": 10471,
      "pursu": 10472,
      "astructure": 10473,
      "olic": 10474,
      "reci": 10475,
      "asp": 10476,
      "affected": 10477,
      "dress": 10478,
      "Middle": 10479,
      "ador": 10480,
      "helps": 10481,
      "isher": 10482,
      "Sour": 10483,
      "sport": 10484,
      "Sign": 10485,
      "pin": 10486,
      "closer": 10487,
      "sphere": 10488,
      "Hist": 10489,
      "phones": 10490,
      "multi": 10491,
      "Mont": 10492,
      "SE": 10493,
      "Second": 10494,
      "developers": 10495,
      "attorney": 10496,
      "Power": 10497,
      "Foundation": 10498,
      "attend": 10499,
      "ki": 10500,
      "BBC": 10501,
      "experts": 10502,
      "deploy": 10503,
      "guarante": 10504,
      "expert": 10505,
      "presented": 10506,
      "soldiers": 10507,
      "Still": 10508,
      "internal": 10509,
      "Ten": 10510,
      "GO": 10511,
      "Right": 10512,
      "2003": 10513,
      "lob": 10514,
      "pping": 10515,
      "hase": 10516,
      "ception": 10517,
      "facing": 10518,
      "ada": 10519,
      "agent": 10520,
      "stret": 10521,
      "factors": 10522,
      "Carolina": 10523,
      "streets": 10524,
      "District": 10525,
      "Paris": 10526,
      "gment": 10527,
      "Four": 10528,
      "2001": 10529,
      "About": 10530,
      "cold": 10531,
      "occurred": 10532,
      "trick": 10533,
      "comfortable": 10534,
      "serving": 10535,
      "equal": 10536,
      "ours": 10537,
      "council": 10538,
      "surprise": 10539,
      "experienced": 10540,
      "applications": 10541,
      "thr": 10542,
      "rapid": 10543,
      "minimum": 10544,
      "urban": 10545,
      "Australian": 10546,
      "Francisco": 10547,
      "specifically": 10548,
      "penal": 10549,
      "sale": 10550,
      "tight": 10551,
      "tag": 10552,
      "gry": 10553,
      "cultural": 10554,
      "Ref": 10555,
      "umn": 10556,
      "porary": 10557,
      "pled": 10558,
      "conscious": 10559,
      "modif": 10560,
      "ruling": 10561,
      "stances": 10562,
      "Brad": 10563,
      "elections": 10564,
      "Inde": 10565,
      "embr": 10566,
      "Dani": 10567,
      "Labour": 10568,
      "Daily": 10569,
      "plane": 10570,
      "tel": 10571,
      "aters": 10572,
      "auth": 10573,
      "estimated": 10574,
      "quot": 10575,
      "approved": 10576,
      "nament": 10577,
      "cohol": 10578,
      "passing": 10579,
      "perspect": 10580,
      "shel": 10581,
      "icient": 10582,
      "jour": 10583,
      "ini": 10584,
[...]
